{
  "</s>": 0,
  "<unk>": 1,
  ".": 2,
  ",": 3,
  "\u2581\"": 4,
  "\u2581the": 5,
  "\u2581to": 6,
  "'": 7,
  "\u2581ma": 8,
  "\u2581e": 9,
  "\u2581ne": 10,
  "\u2581of": 11,
  ":": 12,
  "\u2581-": 13,
  "?": 14,
  "\u2581gi": 15,
  "\u2581ni": 16,
  "\u2581and": 17,
  "\u2581in": 18,
  "\u2581mar": 19,
  "\u2581a": 20,
  "\u2581'": 21,
  "\u2581that": 22,
  "s": 23,
  "\u2581kendo": 24,
  "\u2581Jehova": 25,
  "\u2581kaka": 26,
  "\u2581Nyasaye": 27,
  "\u2581ka": 28,
  "\u2581is": 29,
  "\u2581kuom": 30,
  "\u2581Jehovah": 31,
  "\u2581en": 32,
  "\u2581mondo": 33,
  "\u2581we": 34,
  "\u2581ok": 35,
  "\u2581for": 36,
  "o": 37,
  "\u2581ng": 38,
  "\u2581(": 39,
  "\u2581God": 40,
  "\u2581his": 41,
  "\u2581be": 42,
  "\u2581mag": 43,
  "\u2581": 44,
  "\u2581you": 45,
  "\u2581with": 46,
  "\u2581I": 47,
  "\u2581was": 48,
  "e": 49,
  "\u2581not": 50,
  "\u2581kamano": 51,
  "\u2581will": 52,
  "\u2581he": 53,
  "\u2581as": 54,
  "ing": 55,
  "\u2581have": 56,
  "\u2581Yesu": 57,
  ")": 58,
  "\u2581on": 59,
  "\u2581our": 60,
  "\u2581kata": 61,
  "\u2581Jesus": 62,
  "\u2581nyalo": 63,
  "\u2581are": 64,
  "\u2581duto": 65,
  "\u2581us": 66,
  ";": 67,
  "\u2581it": 68,
  "\u2581bedo": 69,
  "\u25811": 70,
  "\u2581can": 71,
  "\u2581The": 72,
  "\u2581gik": 73,
  "\u2581ahinya": 74,
  "\u2581Muma": 75,
  "\u2581from": 76,
  "\u2581moro": 77,
  "\u2581kod": 78,
  "\u2581by": 79,
  "\u2581piny": 80,
  "\u2581ji": 81,
  "\u2581Bible": 82,
  "\u2581who": 83,
  "\u2581What": 84,
  "\u2581mano": 85,
  "\u2581what": 86,
  "\u2581their": 87,
  "!": 88,
  "a": 89,
  "\u2581weche": 90,
  "eyo": 91,
  "\u2581moko": 92,
  "\u2581do": 93,
  "\u2581gima": 94,
  "\u2581timo": 95,
  "\u2581Kata": 96,
  "\u2581they": 97,
  "\u2581an": 98,
  "\u2581kama": 99,
  "\u2581kinde": 100,
  "\u2581Ka": 101,
  "\u2581or": 102,
  "\u2581bende": 103,
  "\u2581maber": 104,
  "\u2581joma": 105,
  "ato": 106,
  "\u2581mana": 107,
  "\u2581this": 108,
  "\u2581your": 109,
  "\u2581him": 110,
  "\u2581gin": 111,
  "\u2581had": 112,
  "\u2581nikech": 113,
  "\u2581E": 114,
  "\u2581wach": 115,
  "\u2581biro": 116,
  "\u2581all": 117,
  "\u2581ang": 118,
  "\u2581How": 119,
  "eny": 120,
  "\u2581mang": 121,
  "\u2581one": 122,
  "\u2581yo": 123,
  "\u2581Jo": 124,
  "\u2581at": 125,
  "\u2581them": 126,
  "\u2581wacho": 127,
  "\u2581about": 128,
  "\u2581were": 129,
  "\u2581people": 130,
  "\u2581wi": 131,
  "\u2581did": 132,
  "\u2581Ne": 133,
  "\u2581In": 134,
  "\u2581dhi": 135,
  "\u2581would": 136,
  "\u25812": 137,
  "\u2581when": 138,
  "\u2581nyaka": 139,
  "\u2581my": 140,
  "\u2581nyiso": 141,
  "\u2581Jokristo": 142,
  "\u2581Kuom": 143,
  "\u2581paro": 144,
  "\u2581has": 145,
  "\u2581koda": 146,
  "ed": 147,
  "\u2581miyo": 148,
  "\u2581niya": 149,
  "\u2581time": 150,
  "\u2581tiyo": 151,
  "\u2581me": 152,
  "\u2581life": 153,
  "\u2581may": 154,
  "\u2581ranyisi": 155,
  "\u2581onego": 156,
  "\u2581To": 157,
  "\u2581those": 158,
  "\u2581Ang": 159,
  "\u2581We": 160,
  "\u2581so": 161,
  "\u2581dhano": 162,
  "\u2581Be": 163,
  "\u2581help": 164,
  "\u2581[": 165,
  "\u2581how": 166,
  "\u2581but": 167,
  "\u2581manie": 168,
  "\u2581He": 169,
  "go": 170,
  "\u2581ngima": 171,
  "\u25814": 172,
  "\u2581wan": 173,
  "at": 174,
  "\u2581A": 175,
  "\u2581Satan": 176,
  "\u2581go": 177,
  "\u2581achiel": 178,
  "\u2581love": 179,
  "]": 180,
  "ne": 181,
  "\u2581some": 182,
  "\u2581En": 183,
  "\u2581her": 184,
  "ly": 185,
  "\u2581man": 186,
  "\u25815": 187,
  "\u2581kanyakla": 188,
  "\u2581more": 189,
  "\u2581Paulo": 190,
  "\u2581nigi": 191,
  "b": 192,
  "\u2581momiyo": 193,
  "\u2581Paul": 194,
  "gi": 195,
  "\u2581nade": 196,
  "\u2581also": 197,
  "\u2581yie": 198,
  "\u25816": 199,
  "\u2581out": 200,
  "\u2581good": 201,
  "\u2581adier": 202,
  "\u2581chuny": 203,
  "\u2581wanyalo": 204,
  "\u2581should": 205,
  "\u2581Israel": 206,
  "\u2581been": 207,
  "sama": 208,
  "\u2581obedo": 209,
  "\u25813": 210,
  "\u2581maduong": 211,
  "\u2581bang": 212,
  "\u2581jomoko": 213,
  "\u2581wang": 214,
  "\u2581maler": 215,
  "\u2581way": 216,
  "\u2581such": 217,
  "\u2581obed": 218,
  "no": 219,
  "\u2581make": 220,
  "\u2581nowacho": 221,
  "\u2581if": 222,
  "\u2581Mano": 223,
  "\u2581moloyo": 224,
  "\u2581work": 225,
  "\u2581things": 226,
  "\u2581does": 227,
  "\u2581dwarore": 228,
  "\u2581mor": 229,
  "\u2581Why": 230,
  "\u2581neno": 231,
  "\u2581could": 232,
  "\u2581dwaro": 233,
  "\u2581many": 234,
  "\u2581mane": 235,
  "\u2581puonj": 236,
  "\u2581up": 237,
  "\u2581spirit": 238,
  "\u2581It": 239,
  "\u2581ane": 240,
  "\u258115": 241,
  "\u2581nitie": 242,
  "ka": 243,
  "\u2581yudo": 244,
  "\u2581no": 245,
  "\u2581nyime": 246,
  "\u2581When": 247,
  "\u2581mi": 248,
  "\u2581thuolo": 249,
  "\u2581need": 250,
  "\u2581lendo": 251,
  "\u2581others": 252,
  "\u2581higa": 253,
  "\u2581jogo": 254,
  "\u2581Kingdom": 255,
  "\u2581world": 256,
  "\"": 257,
  "\u2581ong": 258,
  "\u2581Kristo": 259,
  "\u2581kik": 260,
  "\u2581said": 261,
  "\u2581other": 262,
  "\u2581Er": 263,
  "\u2581faith": 264,
  "\u2581even": 265,
  "\u2581congregation": 266,
  "\u2581example": 267,
  "\u2581mamoko": 268,
  "\u2581lamo": 269,
  "\u2581Christ": 270,
  "\u2581first": 271,
  "\u2581But": 272,
  "\u2581Christian": 273,
  "\u2581there": 274,
  "\u2581For": 275,
  "\u2581she": 276,
  "\u258110": 277,
  "\u2581tij": 278,
  "\u2581earth": 279,
  "\u2581day": 280,
  "\u258111": 281,
  "\u2581Christians": 282,
  "\u2581konyowa": 283,
  "\u2581konyo": 284,
  "\u2581inyalo": 285,
  "\u2581jo": 286,
  "\u2581ber": 287,
  "\u2581mage": 288,
  "\u2581As": 289,
  "\u25817": 290,
  "\u2581pod": 291,
  "\u2581family": 292,
  "wa": 293,
  "\u2581than": 294,
  "\u2581polo": 295,
  "\u2581years": 296,
  "\u2581ema": 297,
  "\u2581into": 298,
  "\u2581makare": 299,
  "\u2581onge": 300,
  "\u2581gadier": 301,
  "\u2581luwo": 302,
  "\u2581spiritual": 303,
  "\u2581Bang": 304,
  "\u2022": 305,
  "\u2581wuoyo": 306,
  "\u2581maok": 307,
  "\u2581these": 308,
  "the": 309,
  "\u2581Joneno": 310,
  "\u2581kaachiel": 311,
  "\u2581chuth": 312,
  "\u2581see": 313,
  "\u2581They": 314,
  "\u25818": 315,
  "\u2581amora": 316,
  "\u2581made": 317,
  "\u2581kane": 318,
  "\u2581If": 319,
  "\u2581*": 320,
  "ni": 321,
  "\u2581must": 322,
  "\u2581know": 323,
  "\u2581being": 324,
  "\u2581chiwo": 325,
  "\u2581Omiyo": 326,
  "\u2581roho": 327,
  "\u2581duong": 328,
  "\u2581motegno": 329,
  "\u2581Witnesses": 330,
  "\u2581because": 331,
  "\u25811,": 332,
  "\u2581which": 333,
  "\u2581You": 334,
  "\u2581richo": 335,
  "\u258113": 336,
  "\u2581tich": 337,
  "\u2581matek": 338,
  "\u2581only": 339,
  "\u2581hera": 340,
  "\u2581This": 341,
  "\u2581says": 342,
  "\u2581nono": 343,
  "\u2581Nikech": 344,
  "re": 345,
  "\u2581koro": 346,
  "\u2581adiera": 347,
  "\u2581heart": 348,
  "d": 349,
  "\u2581odhi": 350,
  "\u2581miluongo": 351,
  "\u2581'.": 352,
  "\u2581gimoro": 353,
  "\u2581Ng": 354,
  "\u2581brothers": 355,
  "\u2581take": 356,
  "\u2581children": 357,
  "\u2581owete": 358,
  "\u2581mare": 359,
  "\u2581ariyo": 360,
  "\u2581oganda": 361,
  "\u2581bed": 362,
  "\u258114": 363,
  "\u2581yore": 364,
  "\u2581Gin": 365,
  "\u2581chieng": 366,
  "ga": 367,
  "\u2581then": 368,
  "\u2581mokwongo": 369,
  "\u2581over": 370,
  "\u2581words": 371,
  "\u25819": 372,
  "\u2581like": 373,
  "\u2581might": 374,
  "\u2581kode": 375,
  "\u2581matin": 376,
  "\u2581winjo": 377,
  "\u2581kido": 378,
  "\u2581true": 379,
  "\u2581kind": 380,
  "\u2581That": 381,
  "\u258116": 382,
  "\u2581Wach": 383,
  "\u2581tim": 384,
  "\u2581come": 385,
  "\u2581kare": 386,
  "\u2581ones": 387,
  "\u2581well": 388,
  "\u2581mabeyo": 389,
  "\u2581kende": 390,
  "\u2581ite": 391,
  "\u2581give": 392,
  "\u2581okang": 393,
  "\u2581become": 394,
  "\u2581mopogore": 395,
  "\u2581teko": 396,
  "\u2581John": 397,
  "\u2581tho": 398,
  "\u2581own": 399,
  "i": 400,
  "\u2581kinda": 401,
  "\u2581death": 402,
  "\u2581winjruok": 403,
  "\u2581David": 404,
  "\u2581machielo": 405,
  "\u2581Weche": 406,
  "\u2581Daudi": 407,
  "\u2581geno": 408,
  "\u2581opogore": 409,
  "\u2581before": 410,
  "\u2581just": 411,
  "\u2581now": 412,
  "\u2581truth": 413,
  "\u2581And": 414,
  "\u2581notimo": 415,
  "\u258117": 416,
  "\u2581Word": 417,
  "\u2581much": 418,
  "\u258120": 419,
  "\u2581name": 420,
  "\u2581new": 421,
  "ado": 422,
  "\u2581learn": 423,
  "\u2581nomiyo": 424,
  "\u2581show": 425,
  "Som": 426,
  "Read": 427,
  "\u2581another": 428,
  "\u2581sani": 429,
  "\u2581Do": 430,
  "\u2581after": 431,
  "\u2581kar": 432,
  "\u2581kend": 433,
  "...": 434,
  "\u2581feel": 435,
  "\u2581ndalo": 436,
  "\u2581nonyiso": 437,
  "\u2581madier": 438,
  "\u2581person": 439,
  "\u2581men": 440,
  "\u2581timbe": 441,
  "\u2581times": 442,
  "\u2581Ndiko": 443,
  "\u2581two": 444,
  "\u2581wabed": 445,
  "\u2581higini": 446,
  "\u2581keep": 447,
  "t": 448,
  "\u258124": 449,
  "\u2581wachno": 450,
  "\u2581matut": 451,
  "\u2581Sama": 452,
  "\u258118": 453,
  "\u2581dak": 454,
  "\u2581dho": 455,
  "\u2581manyalo": 456,
  "\u2581Father": 457,
  "\u2581Mond": 458,
  "\u2581faithful": 459,
  "\u258112:": 460,
  "\u2581Ruoth": 461,
  "\u2581/": 462,
  "\u2581apostle": 463,
  "\u2581consider": 464,
  "\u2581find": 465,
  "\u2581machiegni": 466,
  "\u2581ministry": 467,
  "/": 468,
  "\u2581today": 469,
  "\u2581through": 470,
  "\u2581great": 471,
  "\u2581higni": 472,
  "\u2581why": 473,
  "\u2581pok": 474,
  "\u2581Jerusalem": 475,
  "\u2581any": 476,
  "\u2581omiyo": 477,
  "\u258112": 478,
  "\u2581kelo": 479,
  "\u2581manyien": 480,
  "\u2581Adam": 481,
  "\u2581study": 482,
  "\u2581owuon": 483,
  "\u2581use": 484,
  "\u2581yiero": 485,
  "\u2581chopo": 486,
  "\u2581keto": 487,
  "\u2581important": 488,
  "\u2581kae": 489,
  "\u2581part": 490,
  "\u2581chunywa": 491,
  "\u2581ketho": 492,
  "\u2581mabiro": 493,
  "\u2581timore": 494,
  "I": 495,
  "\u2581However": 496,
  "\u2581put": 497,
  "\u2581otim": 498,
  "\u2581each": 499,
  "\u2581himself": 500,
  "\u2581parents": 501,
  "\u2581its": 502,
  "\u2581found": 503,
  "\u2581say": 504,
  "\u2581young": 505,
  "\u2581ot": 506,
  "\u2581marach": 507,
  "\u2581seche": 508,
  "\u2581serve": 509,
  "\u2581maricho": 510,
  "\u2581omi": 511,
  "\u2581So": 512,
  "\u2581holy": 513,
  "\u2581very": 514,
  "\u2581Rumi": 515,
  "\u2581luor": 516,
  "\u2581penjo": 517,
  "\u2581Peter": 518,
  "\u2581obiro": 519,
  "\u258119": 520,
  "\u25813:": 521,
  "\u2581medo": 522,
  "\u2581nying": 523,
  "ng": 524,
  "\u2581chunye": 525,
  "\u2581ibiro": 526,
  "\u2581mathoth": 527,
  "\u2581gimomiyo": 528,
  "\u2581mowinjore": 529,
  "\u2581means": 530,
  "\u25818.": 531,
  "\u2581nong": 532,
  "E": 533,
  "\u2581kuwe": 534,
  "\u2581where": 535,
  "\u2581nondiko": 536,
  "\u2581One": 537,
  "\u2581No": 538,
  "\u2581preaching": 539,
  "\u2581jotich": 540,
  "uru": 541,
  "\u2581Petro": 542,
  "\u2581mind": 543,
  "\u2581rieko": 544,
  "\u2581worship": 545,
  "\u2581though": 546,
  "\u2581mangima": 547,
  "\u258121": 548,
  "\u2581Pinyruoth": 549,
  "\u2581S": 550,
  "\u2581kuomgi": 551,
  "\u2581news": 552,
  "\u258110.": 553,
  "\u2581K": 554,
  "\u2581watim": 555,
  "\u258112.": 556,
  "\u2581Som": 557,
  "\u2581Mana": 558,
  "\u25812.": 559,
  "\u2581wrote": 560,
  "\u2581page": 561,
  "\u2581chenro": 562,
  "\u2581never": 563,
  "\u2581right": 564,
  "\u2581long": 565,
  "\u258113.": 566,
  "\u2581course": 567,
  "\u2581machon": 568,
  "\u2581told": 569,
  "\u2581against": 570,
  "\u2581end": 571,
  "\u2581chike": 572,
  "\u2581read": 573,
  "\u2581sula": 574,
  "\u2581dwoko": 575,
  "\u2581most": 576,
  "\u2581Read": 577,
  "\u2581nigo": 578,
  "\u2581same": 579,
  "\u2581let": 580,
  "\u2581tiende": 581,
  "\u2581place": 582,
  "\u2581bwo": 583,
  "\u2581wife": 584,
  "\u2581After": 585,
  "\u2581ei": 586,
  "\u2581wabiro": 587,
  "\u2581disciples": 588,
  "\u2581service": 589,
  "\u2581rito": 590,
  "\u258115,": 591,
  "\u258117.": 592,
  "\u2581want": 593,
  "nyalo": 594,
  "\u258115.": 595,
  "\u2581Musa": 596,
  "\u2581kokalo": 597,
  "\u2581gombo": 598,
  "\u25814.": 599,
  "\u2581pile": 600,
  "Ne": 601,
  "\u258122": 602,
  "\u2581human": 603,
  "\u25815.": 604,
  "\u2581C": 605,
  "\u2581kuome": 606,
  "\u2581Isaiah": 607,
  "\u25819.": 608,
  "\u2581Ok": 609,
  "\u2581madongo": 610,
  "\u2581ways": 611,
  "\u2581Johana": 612,
  "\u2581article": 613,
  "\u2581Scriptures": 614,
  "\u25817.": 615,
  "\u2581kodgi": 616,
  "\u2581view": 617,
  "\u2581chunygi": 618,
  "\u2581kuonde": 619,
  "\u2581kanyachiel": 620,
  "\u2581Some": 621,
  "\u2581nie": 622,
  "\u2581chandruok": 623,
  "\u2581oyie": 624,
  "\u2581used": 625,
  "\u2581doing": 626,
  "\u2581giko": 627,
  "\u2581nyal": 628,
  "\u2581given": 629,
  "\u2581Gima": 630,
  "\u258116.": 631,
  "\u2581chik": 632,
  "\u2581became": 633,
  "\u2581hope": 634,
  "ie": 635,
  "\u2581too": 636,
  "\u2581servants": 637,
  "\u2581osebedo": 638,
  "\u2581brother": 639,
  "\u2581fellow": 640,
  "\u2581nyithindo": 641,
  "\u2581chal": 642,
  "\u258111.": 643,
  "\u2581live": 644,
  "\u2581Kar": 645,
  "\u2581tiend": 646,
  "wono": 647,
  "\u2581during": 648,
  "\u2581At": 649,
  "y": 650,
  "\u2581loch": 651,
  "\u2581tije": 652,
  "\u2581T": 653,
  "\u2581home": 654,
  "\u2581Yahudi": 655,
  "\u2581came": 656,
  "\u2581weyo": 657,
  "\u2581kaluwore": 658,
  "\u2581gave": 659,
  "\u2581somo": 660,
  "\u25816.": 661,
  "\u2581every": 662,
  "\u2581word": 663,
  "\u2581monego": 664,
  "\u258114.": 665,
  "\u25813.": 666,
  "\u2581later": 667,
  "\u2581get": 668,
  "\u2581under": 669,
  "\u2581By": 670,
  "\u2581days": 671,
  "\u258125": 672,
  "\u2581set": 673,
  "\u2581Jakristo": 674,
  "\u2581anointed": 675,
  "\u2581un": 676,
  "\u2581Daniel": 677,
  "\u2581adek": 678,
  "\u2581kapo": 679,
  "\u2581Bethel": 680,
  "\u2581Wanyalo": 681,
  "\u2581bura": 682,
  "\u2581dhok": 683,
  "\u2581kawo": 684,
  "\u2581manyiso": 685,
  "\u2581migawo": 686,
  "\u2581mokalo": 687,
  "\u2581mamor": 688,
  "\u2581With": 689,
  "\u2581elders": 690,
  "\u2581marriage": 691,
  "\u2581away": 692,
  "\u2581questions": 693,
  "\u2581whom": 694,
  "\u2581ginyalo": 695,
  "ther": 696,
  "\u2581wadhi": 697,
  "\u2581otimo": 698,
  "\u2581lweny": 699,
  "\u2581ohero": 700,
  "\u2581Kinde": 701,
  "\u2581Our": 702,
  "\u2581Son": 703,
  "\u2581Ji": 704,
  "\u2581chalo": 705,
  "\u2581King": 706,
  "\u2581makende": 707,
  "\u2581often": 708,
  "\u2581puonjo": 709,
  "\u2581owinjore": 710,
  "\u2581prayer": 711,
  "\u2581am": 712,
  "\u2581kindegi": 713,
  "\u2581sin": 714,
  "\u2581back": 715,
  "\u2581peace": 716,
  "\u2581New": 717,
  "\u2581Moses": 718,
  "\u2581humans": 719,
  "\u2581began": 720,
  "\u2581book": 721,
  "\u2581chon": 722,
  "\u2581ting": 723,
  "\u25813,": 724,
  "\u2581among": 725,
  "\u2581lwedo": 726,
  "\u2581kit": 727,
  "\u2581gigo": 728,
  "\u2581joy": 729,
  "\u2581watimo": 730,
  "\u2581old": 731,
  "\u2581puonjore": 732,
  "\u2581buge": 733,
  "\u258118.": 734,
  "\u2581making": 735,
  "\u2581mowal": 736,
  "\u2581ndiko": 737,
  "\u2581din": 738,
  "\u2581future": 739,
  "\u2581personal": 740,
  "\u2581yudore": 741,
  "\u2581M": 742,
  "\u2581lando": 743,
  "\u2581Is": 744,
  "pok": 745,
  "\u2581jiwo": 746,
  "\u2581sure": 747,
  "\u2581nochako": 748,
  "\u2581His": 749,
  "\u2581Tim": 750,
  "\u2581living": 751,
  "\u258123": 752,
  "\u2581down": 753,
  "\u2581Mathayo": 754,
  "Zab": 755,
  "\u2581loving": 756,
  "\u25815,": 757,
  "\u2581She": 758,
  "\u2581year": 759,
  "\u2581Ibrahim": 760,
  "\u2581helped": 761,
  "na": 762,
  "\u2581noyudo": 763,
  "\u2581nenore": 764,
  "\u2581still": 765,
  "\u2581able": 766,
  "\u2581power": 767,
  "\u2581kony": 768,
  "\u2581heaven": 769,
  "\u2581think": 770,
  "\u2581Bende": 771,
  "\u2581always": 772,
  "\u2581three": 773,
  "\u2581chir": 774,
  "\u2581century": 775,
  "\u2581mich": 776,
  "\u2581On": 777,
  "\u2581bring": 778,
  "\u2581jal": 779,
  "\u2581fact": 780,
  "\u2581Pinyruodh": 781,
  "\u2581ask": 782,
  "\u2581yor": 783,
  "\u2581ging": 784,
  "\u2581ourselves": 785,
  "\u2581wechego": 786,
  "\u2581Zaburi": 787,
  "\u2581counsel": 788,
  "\u2581puonjruok": 789,
  "\u2581full": 790,
  "\u2581gidhi": 791,
  "\u2581otho": 792,
  "\u2581dhako": 793,
  "\u25819,": 794,
  "\u2581Nitie": 795,
  "\u2581themselves": 796,
  "\u2581Abraham": 797,
  "\u2581house": 798,
  "\u2581support": 799,
  "u": 800,
  "\u2581benefit": 801,
  "\u2581father": 802,
  "\u2581felt": 803,
  "\u2581wuon": 804,
  "\u2581alwora": 805,
  "\u2581machalo": 806,
  "\u2581meetings": 807,
  "\u2581pesa": 808,
  ".)": 809,
  "\u2581order": 810,
  "\u2581Yes": 811,
  "\u2581kamago": 812,
  "\u2581Matthew": 813,
  "\u2581needed": 814,
  "\u2581siem": 815,
  "\u2581pinje": 816,
  "\u2581hand": 817,
  "\u2581result": 818,
  "\u2581son": 819,
  "\u2581close": 820,
  "\u2581kiawa": 821,
  "\u2581Many": 822,
  "\u2581chokruoge": 823,
  "\u2581upon": 824,
  "\u2581nimar": 825,
  "\u2581odiechieng": 826,
  "\u2581really": 827,
  "\u2581Kendo": 828,
  "\u25818,": 829,
  "\u2581husband": 830,
  "\u258114,": 831,
  "\u2581lit": 832,
  "\u2581kanyo": 833,
  "\u2581ngimane": 834,
  "\u2581asked": 835,
  "\u2581Then": 836,
  "\u2581Let": 837,
  "\u2581ngimawa": 838,
  "\u2581both": 839,
  "\u2581reason": 840,
  "\u2581share": 841,
  "\u258128": 842,
  "\u2581Tich": 843,
  "\u258119.": 844,
  "\u2581together": 845,
  "\u2581something": 846,
  "\u2581without": 847,
  "\u2581mago": 848,
  "\u2581bug": 849,
  "\u2581language": 850,
  "\u2581Nyalo": 851,
  "\u2581heavenly": 852,
  "\u2581Bedo": 853,
  "\u2581Psalm": 854,
  "\u2581purpose": 855,
  "\u25816,": 856,
  "\u2581experience": 857,
  "\u2581learned": 858,
  "\u2581Israelites": 859,
  "\u2581serving": 860,
  "\u2581nyimine": 861,
  "\u2581nobedo": 862,
  "\u2581Kapo": 863,
  "\u2581lokruok": 864,
  "\u2581mankind": 865,
  "\u2581understand": 866,
  "n": 867,
  "\u2581Ayub": 868,
  "\u2581face": 869,
  "\u2581momedore": 870,
  "\u2581N": 871,
  "\u2581care": 872,
  "\u2581took": 873,
  "\u2581possible": 874,
  "\u2581toward": 875,
  "\u2581pek": 876,
  "\u2581knowledge": 877,
  "\u2581message": 878,
  "\u2581chandruoge": 879,
  "\u2581margi": 880,
  "\u2581Yet": 881,
  "\u2581mapiyo": 882,
  "\u2581jomamoko": 883,
  "\u2581Even": 884,
  "\u2581Consider": 885,
  "\u2581Joseph": 886,
  "\u2581mayot": 887,
  "\u2581ringruok": 888,
  "\u2581There": 889,
  "\u2581miriambo": 890,
  "\u2581Josef": 891,
  "\u2581Onge": 892,
  "\u2581Picha": 893,
  "\u2581however": 894,
  "\u2581wuok": 895,
  "\u25814,": 896,
  "\u2581called": 897,
  "\u2581look": 898,
  "\u2581having": 899,
  "\u2581joge": 900,
  "\u2581remain": 901,
  "\u2581lead": 902,
  "\u25817,": 903,
  "\u2581Job": 904,
  "\u2581mwandu": 905,
  "The": 906,
  "al": 907,
  "\u2581Luka": 908,
  "\u2581temo": 909,
  "\u2581best": 910,
  "\u2581riwruok": 911,
  "\u2581ever": 912,
  "\u2581jaote": 913,
  "\u2581Ma": 914,
  "\u258111,": 915,
  "\u258126": 916,
  "\u2581owacho": 917,
  "\u2581jodongo": 918,
  "\u2581otimore": 919,
  "\u2581wicked": 920,
  "\u2581manyo": 921,
  "\u2581mother": 922,
  "iyo": 923,
  "\u2581child": 924,
  "\u2581while": 925,
  "\u2581Samuel": 926,
  "\u2581answer": 927,
  "\u2581wisdom": 928,
  "\u2581continue": 929,
  "\u2581siko": 930,
  "\u2581chiemo": 931,
  "\u2581gibed": 932,
  "\u2581pi": 933,
  "\u2581joot": 934,
  "\u2581someone": 935,
  "\u2581Luke": 936,
  "\u2581gitimo": 937,
  "\u2581nochiwo": 938,
  "\u2581avoid": 939,
  "\u2581konyi": 940,
  "\u2581lero": 941,
  "\u2581tek": 942,
  "\u2581happy": 943,
  "\u2581loko": 944,
  "\u2581baptized": 945,
  "\u2581relationship": 946,
  "\u2581tell": 947,
  "\u2581'?": 948,
  "\u2581desire": 949,
  "\u2581last": 950,
  "\u2581bad": 951,
  "\u2581done": 952,
  "\u258133": 953,
  "S": 954,
  "\u258112,": 955,
  "ama": 956,
  "\u258132": 957,
  "\u2581chunya": 958,
  "\u258131": 959,
  "See": 960,
  "\u2581again": 961,
  "\u2581ler": 962,
  "\u2581eyes": 963,
  "\u2581ja": 964,
  "\u2581matter": 965,
  "\u2581sisters": 966,
  "\u2581Ja": 967,
  "\u2581giving": 968,
  "\u2581receive": 969,
  "\u2581Joma": 970,
  "\u2581My": 971,
  "\u2581hard": 972,
  "\u258130": 973,
  "\u2581An": 974,
  "\u2581Picture": 975,
  "\u258120.": 976,
  "\u25812,": 977,
  "\u2581pinyni": 978,
  "\u2581erokamano": 979,
  "\u2581noketo": 980,
  "\u2581tieko": 981,
  "\u2581From": 982,
  "\u2581Gik": 983,
  "\u2581Hibrania": 984,
  "\u2581Par": 985,
  "\u2581mos": 986,
  "\u2581chiegni": 987,
  "\u2581friends": 988,
  "\u2581rowere": 989,
  "\u2581knew": 990,
  "\u2581osiep": 991,
  "\u2581moved": 992,
  "\u258116,": 993,
  "\u2581Dong": 994,
  "\u2581dongruok": 995,
  "\u2581mean": 996,
  "\u2581jonyuol": 997,
  "\u2581pray": 998,
  "\u2581Jakobo": 999,
  "\u2581madwarore": 1000,
  "\u2581Does": 1001,
  "\u2581wabedo": 1002,
  "\u2581righteous": 1003,
  "\u258127": 1004,
  "\u258129": 1005,
  "\u2581World": 1006,
  "\u2581respect": 1007,
  "\u258110,": 1008,
  "\u2581nyathi": 1009,
  "\u2581saw": 1010,
  "\u2581following": 1011,
  "\u2581conduct": 1012,
  "\u2581oyudo": 1013,
  "\u2581chwo": 1014,
  "\u2581enjoy": 1015,
  "\u2581onyalo": 1016,
  "\u2581W": 1017,
  "\u2581Because": 1018,
  "\u2581malo": 1019,
  "\u2581woman": 1020,
  "hose": 1021,
  "\u2581ochung": 1022,
  "\u2581received": 1023,
  "\u2581chunyi": 1024,
  "\u2581giwegi": 1025,
  "\u2581open": 1026,
  "\u2581situation": 1027,
  "\u2581system": 1028,
  "\u2581gweth": 1029,
  "ad": 1030,
  "\u2581golo": 1031,
  "\u2581thinking": 1032,
  "\u258117,": 1033,
  "\u2581between": 1034,
  "\u2581few": 1035,
  "\u2581follow": 1036,
  "\u2581lives": 1037,
  "\u2581teaching": 1038,
  "\u2581imitate": 1039,
  "\u2581different": 1040,
  "\u2581sister": 1041,
  "\u2581tem": 1042,
  "\u2581Chik": 1043,
  "\u2581m": 1044,
  "\u2581sense": 1045,
  "\u258113,": 1046,
  "\u2581free": 1047,
  "\u2581gift": 1048,
  "\u2581needs": 1049,
  "\u2581Timo": 1050,
  "\u2581Fweny": 1051,
  "\u2581Your": 1052,
  "\u2581speak": 1053,
  "\u2581Acts": 1054,
  "\u2581Timotheo": 1055,
  "\u2581feelings": 1056,
  "\u2581members": 1057,
  "\u2581wachni": 1058,
  "\u2581fine": 1059,
  "\u2581notimore": 1060,
  "\u2581ratiro": 1061,
  "\u2581yourself": 1062,
  "\u2581Kae": 1063,
  "\u2581jopuonjrene": 1064,
  "\u2581rach": 1065,
  "\u2581yot": 1066,
  "\u2581motelo": 1067,
  "\u2581rwako": 1068,
  "\u2581Owadwa": 1069,
  "\u2581likely": 1070,
  "\u2581miyowa": 1071,
  "\u2581Ee": 1072,
  "\u2581Lord": 1073,
  "\u2581These": 1074,
  "\u2581dichwo": 1075,
  "\u2581nyim": 1076,
  "\u2581Piny": 1077,
  "ri": 1078,
  "\u2581allow": 1079,
  "\u2581followers": 1080,
  "\u2581kor": 1081,
  "\u2581question": 1082,
  "\u2581strong": 1083,
  "\u2581Timothy": 1084,
  "\u2581cannot": 1085,
  "\u2581chokruok": 1086,
  "\u2581wise": 1087,
  "\u258121.": 1088,
  "\u2581Nyaka": 1089,
  "\u2581Solomon": 1090,
  "\u2581believe": 1091,
  "\u2581All": 1092,
  "\u2581ing": 1093,
  "\u2581D": 1094,
  "\u2581wanted": 1095,
  "\u2581dala": 1096,
  "\u2581point": 1097,
  "lthough": 1098,
  "negi": 1099,
  "\u2581Wuon": 1100,
  "\u2581reading": 1101,
  "\u2581Noa": 1102,
  "\u2581kindness": 1103,
  "\u2581mwanyalo": 1104,
  "\u2581organization": 1105,
  "\u2581Moko": 1106,
  "\u2581Jaote": 1107,
  "\u2581left": 1108,
  "\u2581nyithindgi": 1109,
  "k": 1110,
  "\u2581city": 1111,
  "\u2581ruoth": 1112,
  "\u2581wiye": 1113,
  "\u2581MAR": 1114,
  "\u2581Onego": 1115,
  "\u2581act": 1116,
  "\u2581jopuonjre": 1117,
  "\u2581loso": 1118,
  "\u2581oko": 1119,
  "\u2581bi": 1120,
  "\u2581law": 1121,
  "\u2581Jomoko": 1122,
  "\u2581O": 1123,
  "\u2581present": 1124,
  "\u2581Watchtower": 1125,
  "\u2581better": 1126,
  "\u2581king": 1127,
  "\u2581provide": 1128,
  "\u2581sheep": 1129,
  "\u2581wawegi": 1130,
  "\u2581slave": 1131,
  "\u2581idhi": 1132,
  "\u2581mayudore": 1133,
  "\u2581thought": 1134,
  "\u2581qualities": 1135,
  "\u2581account": 1136,
  "\u2581attitude": 1137,
  "\u2581donjo": 1138,
  "\u2581hero": 1139,
  "\u2581kabe": 1140,
  "\u2581mariek": 1141,
  "\u2581married": 1142,
  "\u2581went": 1143,
  "\u2581yet": 1144,
  "\u2581Owacho": 1145,
  "\u2581next": 1146,
  "\u2581spiritually": 1147,
  "\u2581food": 1148,
  "A": 1149,
  "\u2581trust": 1150,
  "\u258123.": 1151,
  "\u2581age": 1152,
  "\u2581ngimagi": 1153,
  "\u2581odak": 1154,
  "\u2581Noah": 1155,
  "\u2581misango": 1156,
  "\u2581near": 1157,
  "\u2581ere": 1158,
  "\u2581known": 1159,
  "\u2581matindo": 1160,
  "\u2581ayanga": 1161,
  "\u2581chien": 1162,
  "\u2581especially": 1163,
  "\u2581mon": 1164,
  "\u2581real": 1165,
  "\u258137": 1166,
  "\u2581Achiel": 1167,
  "\u2581apostles": 1168,
  "\u2581notiyo": 1169,
  "\u2581problems": 1170,
  "\u2581sa": 1171,
  "\u2581sulani": 1172,
  "won": 1173,
  "\u258118,": 1174,
  "\u2581Matt": 1175,
  "\u2581thus": 1176,
  "\u2581Wa": 1177,
  "\u2581noneno": 1178,
  "\u258140": 1179,
  "\u2581difficult": 1180,
  "\u2581Of": 1181,
  "\u2581kwan": 1182,
  "\u2581prayers": 1183,
  "Ka": 1184,
  "\u2581Watch": 1185,
  "\u2581buk": 1186,
  "\u2581nyinge": 1187,
  "\u2581died": 1188,
  "\u2581gero": 1189,
  "\u2581kindeno": 1190,
  "\u2581saying": 1191,
  "nwa": 1192,
  "\u2581chako": 1193,
  "\u2581ngang": 1194,
  "\u2581off": 1195,
  "\u2581self": 1196,
  "\u2581whe": 1197,
  "er": 1198,
  "\u2581Zab": 1199,
  "\u2581owadwa": 1200,
  "\u2581wayudo": 1201,
  "\u2581Mesia": 1202,
  "\u2581sacrifice": 1203,
  "\u2581locho": 1204,
  "\u2581masira": 1205,
  "\u2581number": 1206,
  "\u2581teach": 1207,
  "\u2581Thus": 1208,
  "\u2581adhi": 1209,
  "\u2581chier": 1210,
  "\u2581itimo": 1211,
  "\u2581case": 1212,
  "\u2581chiko": 1213,
  "\u2581parruok": 1214,
  "\u2581prophet": 1215,
  "\u2581matters": 1216,
  "\u2581mogik": 1217,
  "\u2581painia": 1218,
  "\u2581privilege": 1219,
  "\u2581special": 1220,
  "\u2581taking": 1221,
  "\u2581taon": 1222,
  "\u2581tayo": 1223,
  "\u2581Law": 1224,
  "\u2581far": 1225,
  "\u2581migepe": 1226,
  "\u2581principles": 1227,
  "\u2581wrong": 1228,
  "\u2581dwe": 1229,
  "\u2581Rather": 1230,
  "\u2581Who": 1231,
  "\u2581nor": 1232,
  "\u2581resurrection": 1233,
  "Nge": 1234,
  "\u2581Pet": 1235,
  "\u2581THE": 1236,
  "\u2581certain": 1237,
  "\u2581jaduong": 1238,
  "luwore": 1239,
  "biro": 1240,
  "\u2581chiege": 1241,
  "\u2581osiepe": 1242,
  "\u2581w": 1243,
  "\u258119,": 1244,
  "\u2581Korintho": 1245,
  "\u2581ancient": 1246,
  "\u2581everlasting": 1247,
  "\u2581konyogi": 1248,
  "\u2581early": 1249,
  "\u2581k": 1250,
  "\u2581onyiso": 1251,
  "\u2581tong": 1252,
  "\u2581willing": 1253,
  "ata": 1254,
  "\u2581rawera": 1255,
  "\u2581iye": 1256,
  "\u2581Sula": 1257,
  "\u2581fwenyo": 1258,
  "\u2581little": 1259,
  "\u2581Tower": 1260,
  "\u2581honor": 1261,
  "\u2581loved": 1262,
  "\u2581maonge": 1263,
  "\u2581change": 1264,
  "\u2581mochwere": 1265,
  "\u2581sons": 1266,
  "\u2581examples": 1267,
  "\u2581got": 1268,
  "\u2581pachwa": 1269,
  "\u2581religious": 1270,
  "\u2581romo": 1271,
  "\u2581tembe": 1272,
  "\u2581ransom": 1273,
  "\u2581pioneer": 1274,
  "\u2581reflect": 1275,
  "\u2581Jews": 1276,
  "\u2581nation": 1277,
  "\u2581wa": 1278,
  "\u2581Wan": 1279,
  "\u2581individuals": 1280,
  "\u2581similar": 1281,
  "\u2581Kik": 1282,
  "\u2581gives": 1283,
  "wen": 1284,
  "\u2581moriwo": 1285,
  "\u2581tiyogo": 1286,
  "\u2581Scriptural": 1287,
  "\u2581nations": 1288,
  "\u2581oti": 1289,
  "\u2581perfect": 1290,
  "\u2581PAGE": 1291,
  "\u2581kwayo": 1292,
  "\u2581loyal": 1293,
  "\u2581oriwo": 1294,
  "\u2581attention": 1295,
  "\u2581circumstances": 1296,
  "\u2581mogundho": 1297,
  "\u2581sent": 1298,
  "org": 1299,
  "\u2581wanon": 1300,
  "\u2581whole": 1301,
  "\u2581Mary": 1302,
  "\u2581brought": 1303,
  "\u2581until": 1304,
  "\u2581material": 1305,
  "\u2581Can": 1306,
  "\u2581Misri": 1307,
  "\u2581Ps": 1308,
  "\u2581decisions": 1309,
  "\u258124.": 1310,
  "\u2581Are": 1311,
  "\u2581information": 1312,
  "\u2581mentioned": 1313,
  "\u2581false": 1314,
  "\u2581Yo": 1315,
  "\u2581nyisowa": 1316,
  "\u2581soon": 1317,
  "\u2581taught": 1318,
  "\u2581wadwaro": 1319,
  "\u2581blessings": 1320,
  "\u2581dead": 1321,
  "\u2581along": 1322,
  "\u2581cause": 1323,
  "\u2581fully": 1324,
  "\u2581minyalo": 1325,
  "\u2581Mokwongo": 1326,
  "\u2581oyud": 1327,
  "\u2581rule": 1328,
  "\u2581SONGS": 1329,
  "\u2581comes": 1330,
  "\u2581ochako": 1331,
  "\u2581truly": 1332,
  "\u2581kuomwa": 1333,
  "\u2581mapek": 1334,
  "\u2581move": 1335,
  "\u2581rombe": 1336,
  "\u2581since": 1337,
  "\u2581makes": 1338,
  "\u2581More": 1339,
  "\u2581goyo": 1340,
  "\u2581second": 1341,
  "\u2581apar": 1342,
  "\u2581seem": 1343,
  "\u2581remember": 1344,
  "\u2581righteousness": 1345,
  "\u2581shows": 1346,
  "\u2581inspired": 1347,
  "\u2581past": 1348,
  "\u2581works": 1349,
  "\u2581jotichne": 1350,
  "\u2581MA": 1351,
  "\u2581draw": 1352,
  "\u2581loyo": 1353,
  "\u2581ogendini": 1354,
  "\u2581women": 1355,
  "\u2581James": 1356,
  "\u2581prophecy": 1357,
  "ere": 1358,
  "\u2581forever": 1359,
  "\u2581body": 1360,
  "\u2581dine": 1361,
  "\u2581maintain": 1362,
  "\u2581states": 1363,
  "\u2581try": 1364,
  "\u2581preach": 1365,
  "\u2581going": 1366,
  "\u2581turn": 1367,
  "uch": 1368,
  "\u2581school": 1369,
  "\u2581comfort": 1370,
  "\u2581gibiro": 1371,
  "\u2581oneno": 1372,
  "\u2581podi": 1373,
  "\u2581riwo": 1374,
  "\u2581heard": 1375,
  "\u2581provided": 1376,
  "\u2581wane": 1377,
  "\u2581clear": 1378,
  "\u2581luoro": 1379,
  "\u2581marwa": 1380,
  "\u2581return": 1381,
  "\u258122.": 1382,
  "\u2581Devil": 1383,
  "\u2581greater": 1384,
  "\u2581mamiyo": 1385,
  "\u2581Mark": 1386,
  "\u2581oting": 1387,
  "\u2581prove": 1388,
  "\u2581ITE": 1389,
  "\u2581Math": 1390,
  "\u2581ir": 1391,
  "\u2581opportunity": 1392,
  "\u2581accept": 1393,
  "\u2581kowacho": 1394,
  "\u2581Maduong": 1395,
  "\u2581doubt": 1396,
  "\u2581moa": 1397,
  "\u2581talk": 1398,
  "\u2581understanding": 1399,
  "\u2581Hawa": 1400,
  "\u2581land": 1401,
  "\u2581thoth": 1402,
  "\u2581kwedo": 1403,
  "\u2581temple": 1404,
  "\u2581Did": 1405,
  "\u2581apply": 1406,
  "\u2581around": 1407,
  "\u2581nobiro": 1408,
  "\u2581promise": 1409,
  "less": 1410,
  "\u2581Joshua": 1411,
  "\u2581Puonj": 1412,
  "\u2581direction": 1413,
  "\u2581skul": 1414,
  "long": 1415,
  "\u2581involved": 1416,
  "\u2581strength": 1417,
  "espite": 1418,
  "\u2581Would": 1419,
  "\u2581believers": 1420,
  "\u2581B": 1421,
  "\u2581integrity": 1422,
  "\u2581ngimana": 1423,
  "\u2581pache": 1424,
  "\u2581jolendo": 1425,
  "\u2581mager": 1426,
  "\u2581nokonyo": 1427,
  "\u2581nokoro": 1428,
  "\u2581strengthen": 1429,
  "\u2581Romans": 1430,
  "\u2581evidence": 1431,
  "\u2581kedo": 1432,
  "\u2581lemo": 1433,
  "\u2581suffering": 1434,
  "\u258134": 1435,
  "\u2581anyone": 1436,
  "\u2581nodhi": 1437,
  "\u2581nohero": 1438,
  "\u2581war": 1439,
  "\u2581Paro": 1440,
  "\u2581Un": 1441,
  "\u2581meaning": 1442,
  "\u2581miwuoro": 1443,
  "\u2581nowuoyo": 1444,
  "\u2581events": 1445,
  "\u2581kingdom": 1446,
  "\u2581nodak": 1447,
  "\u2581juma": 1448,
  "\u2581meeting": 1449,
  "\u2581s": 1450,
  "\u2581tuwo": 1451,
  "\u2581Jogo": 1452,
  "\u2581friend": 1453,
  "\u2581money": 1454,
  "\u2581regard": 1455,
  "\u2581showed": 1456,
  "\u2581fear": 1457,
  "\u2581here": 1458,
  "\u2581serious": 1459,
  "\u2581(1": 1460,
  "\u2581Instead": 1461,
  "\u2581hekalu": 1462,
  "\u2581including": 1463,
  "\u2581nothing": 1464,
  "\u2581sirkal": 1465,
  "\u2581Kor": 1466,
  "\u2581Wuode": 1467,
  "\u2581activities": 1468,
  "\u2581ochopo": 1469,
  "hile": 1470,
  "\u2581Amerka": 1471,
  "\u2581Ooyo": 1472,
  "\u2581effort": 1473,
  "\u2581i": 1474,
  "\u2581small": 1475,
  "\u2581coming": 1476,
  "\u2581mong": 1477,
  "\u2581Rapar": 1478,
  "\u2581jolupne": 1479,
  "\u2581malit": 1480,
  "\u2581Nowacho": 1481,
  "\u2581decision": 1482,
  "\u2581determined": 1483,
  "\u2581Not": 1484,
  "\u2581health": 1485,
  "\u2581waneno": 1486,
  "\u2581Like": 1487,
  "\u2581Today": 1488,
  "\u2581kuno": 1489,
  "\u2581using": 1490,
  "\u2581lost": 1491,
  "\u2581appreciate": 1492,
  "\u2581Creator": 1493,
  "\u2581Grik": 1494,
  "\u2581wants": 1495,
  "\u2581Chakruok": 1496,
  "\u2581singo": 1497,
  "\u2581thing": 1498,
  "\u2581witness": 1499,
  "\u2581affect": 1500,
  "\u2581courage": 1501,
  "\u2581interest": 1502,
  "\u2581obi": 1503,
  "\u2581seen": 1504,
  "\u2581Corinthians": 1505,
  "\u2581effect": 1506,
  "\u2581Dur": 1507,
  "\u2581Mopogore": 1508,
  "\u2581blessing": 1509,
  "\u2581Suleman": 1510,
  "\u2581Will": 1511,
  "\u2581joode": 1512,
  "\u2581nyis": 1513,
  "\u2581encourage": 1514,
  "\u2581Greek": 1515,
  "\u2581dinde": 1516,
  "\u2581older": 1517,
  "\u258125.": 1518,
  "\u2581deal": 1519,
  "\u2581hearts": 1520,
  "\u2581iluongo": 1521,
  "\u2581kept": 1522,
  "\u2581Hera": 1523,
  "\u2581angels": 1524,
  "\u2581experienced": 1525,
  "\u2581jiwowa": 1526,
  "\u2581kamoro": 1527,
  "\u2581mach": 1528,
  "\u2581Ngima": 1529,
  "\u2581Revelation": 1530,
  "\u2581control": 1531,
  "\u2581four": 1532,
  "\u2581oweyo": 1533,
  "\u2581anyalo": 1534,
  "\u2581gitiyo": 1535,
  "\u2581lived": 1536,
  "\u2581malach": 1537,
  "Chak": 1538,
  "\u2581baptism": 1539,
  "\u2581tara": 1540,
  "You": 1541,
  "\u2581based": 1542,
  "\u2581koso": 1543,
  "\u2581regarding": 1544,
  "\u2581Ngeche": 1545,
  "\u2581lony": 1546,
  "\u2581started": 1547,
  "\u258120,": 1548,
  "\u2581nojiwo": 1549,
  "\u2581couple": 1550,
  "\u2581oketo": 1551,
  "\u2581available": 1552,
  "\u2581mabor": 1553,
  "\u2581elder": 1554,
  "\u2581kindego": 1555,
  "\u2581nokawo": 1556,
  "\u2581wanyal": 1557,
  "\u2581Ranyisi": 1558,
  "\u2581congregations": 1559,
  "\u2581high": 1560,
  "\u2581sand": 1561,
  "\u2581spoke": 1562,
  "\u2581kotiyo": 1563,
  "\u2581named": 1564,
  "\u2581paragraf": 1565,
  "\u2581Society": 1566,
  "\u2581Still": 1567,
  "\u2581field": 1568,
  "\u2581foretold": 1569,
  "\u2581gain": 1570,
  "\u2581gitim": 1571,
  "\u2581ich": 1572,
  "\u2581stand": 1573,
  "\u2581written": 1574,
  "\u2581Cor": 1575,
  "\u2581MAG": 1576,
  "\u2581Proverbs": 1577,
  "\u2581appreciation": 1578,
  "\u2581chwore": 1579,
  "\u2581gibedo": 1580,
  "\u2581helps": 1581,
  "\u2581ndalogi": 1582,
  "\u2581standards": 1583,
  "\u2581Eve": 1584,
  "\u2581Wuonwa": 1585,
  "\u2581confidence": 1586,
  "\u2581focus": 1587,
  "\u2581once": 1588,
  "\u2581promises": 1589,
  "\u2581respond": 1590,
  "\u2581Isa": 1591,
  "\u2581already": 1592,
  "\u2581certainly": 1593,
  "\u2581earthly": 1594,
  "\u2581kindgi": 1595,
  "\u2581efforts": 1596,
  "\u2581janabi": 1597,
  "\u2581kodwa": 1598,
  "\u2581rather": 1599,
  "\u2581waduto": 1600,
  "\u2581Since": 1601,
  "\u2581d": 1602,
  "\u2581iwuon": 1603,
  "\u2581religion": 1604,
  "\u2581water": 1605,
  "\u2581Jachien": 1606,
  "\u2581Messiah": 1607,
  "\u2581Nenore": 1608,
  "\u2581appointed": 1609,
  "\u2581geng": 1610,
  "\u2581night": 1611,
  "Isa": 1612,
  "\u2581mari": 1613,
  "\u2581speaking": 1614,
  "\u2581thoughts": 1615,
  "ra": 1616,
  "\u2581deep": 1617,
  "\u2581illustration": 1618,
  "\u2581mosekalo": 1619,
  "\u2581wahero": 1620,
  "\u2581wamor": 1621,
  "\u2581anything": 1622,
  "\u2581covenant": 1623,
  "\u2581ngimani": 1624,
  "\u2581oket": 1625,
  "\u2581promised": 1626,
  "\u2581samoro": 1627,
  "\u2581Hebrew": 1628,
  "\u2581chung": 1629,
  "\u2581group": 1630,
  "th": 1631,
  "\u2581born": 1632,
  "\u2581dongo": 1633,
  "\u2581issue": 1634,
  "\u2581mate": 1635,
  "\u2581nyalore": 1636,
  "\u2581please": 1637,
  "\u2581Chieng": 1638,
  "\u2581Joh": 1639,
  "\u2581Saulo": 1640,
  "\u2581Therefore": 1641,
  "\u2581motudore": 1642,
  "\u2581rawar": 1643,
  "in": 1644,
  "\u2581Now": 1645,
  "\u2581onyis": 1646,
  "\u2581osemiyo": 1647,
  "\u2581recorded": 1648,
  "\u2581stated": 1649,
  "\u2581wuoro": 1650,
  "\u2581\u25aa": 1651,
  "ano": 1652,
  "\u25811914": 1653,
  "\u2581happiness": 1654,
  "\u2581precious": 1655,
  "\u2581role": 1656,
  "\u2581sins": 1657,
  "\u2581oa": 1658,
  "\u2581practical": 1659,
  "ang": 1660,
  "\u2581Joote": 1661,
  "\u2581authority": 1662,
  "\u2581manono": 1663,
  "\u2581malaike": 1664,
  "\u2581nyak": 1665,
  "\u2581otiyo": 1666,
  "\u2581perhaps": 1667,
  "\u2581light": 1668,
  "\u2581listen": 1669,
  "\u2581od": 1670,
  "\u2581offer": 1671,
  "\u2581served": 1672,
  "\u2581taken": 1673,
  "\u2581value": 1674,
  "God": 1675,
  "\u2581chapter": 1676,
  "\u2581dibed": 1677,
  "\u2581start": 1678,
  "\u2581Dwoko": 1679,
  "\u2581Translation": 1680,
  "\u2581bolruok": 1681,
  "\u2581gueth": 1682,
  "\u2581worshippers": 1683,
  "\u2581iyud": 1684,
  "\u2581Sam": 1685,
  "\u2581actions": 1686,
  "\u2581answers": 1687,
  "\u2581mapile": 1688,
  "\u2581changed": 1689,
  "\u2581complete": 1690,
  "\u2581large": 1691,
  "\u2581letter": 1692,
  "\u2581tribulation": 1693,
  "\u2581mohero": 1694,
  "\u2581oikore": 1695,
  "Ng": 1696,
  "\u2581kindwa": 1697,
  "\u2581nochopo": 1698,
  "\u2581reach": 1699,
  "\u258122,": 1700,
  "\u2581Gi": 1701,
  "\u2581gidwaro": 1702,
  "\u2581hands": 1703,
  "\u2581helping": 1704,
  "\u2581leave": 1705,
  "\u2581local": 1706,
  "O": 1707,
  "\u2581Seche": 1708,
  "\u2581ibed": 1709,
  "\u25aa": 1710,
  "higini": 1711,
  "\u2581ability": 1712,
  "\u2581common": 1713,
  "\u2581country": 1714,
  "\u2581hear": 1715,
  "\u2581imperfect": 1716,
  "\u2581maluwo": 1717,
  "\u2581nyaminwa": 1718,
  "\u2581unity": 1719,
  "\u2581Indeed": 1720,
  "\u2581modak": 1721,
  "\u2581Genesis": 1722,
  "\u2581everything": 1723,
  "\u2581simply": 1724,
  "Jehovah": 1725,
  "\u2581divine": 1726,
  "\u2581jodong": 1727,
  "\u2581terruok": 1728,
  "\u2581advice": 1729,
  "\u2581chak": 1730,
  "\u2581donge": 1731,
  "\u2581mbaka": 1732,
  "\u2581physical": 1733,
  "\u2581watiyo": 1734,
  "\u25819)": 1735,
  "\u2581Bura": 1736,
  "\u2581Roho": 1737,
  "\u2581alone": 1738,
  "\u2581clearly": 1739,
  "\u2581jolweny": 1740,
  "\u2581longer": 1741,
  "\u2581nonro": 1742,
  "\u2581else": 1743,
  "\u2581happened": 1744,
  "\u2581showing": 1745,
  "\u2581Ohinga": 1746,
  "\u2581Pennsylvania": 1747,
  "\u2581instance": 1748,
  "\u2581singruok": 1749,
  "\u2581wonderful": 1750,
  "2:": 1751,
  "\u2581considered": 1752,
  "\u2581heavens": 1753,
  "\u2581judgment": 1754,
  "\u2581odwaro": 1755,
  "\u2581puonjowa": 1756,
  "\u258135": 1757,
  "\u2581Romo": 1758,
  "\u2581chakre": 1759,
  "\u2581glory": 1760,
  "\u2581head": 1761,
  "\u2581powerful": 1762,
  "\u2581diher": 1763,
  "\u2581freedom": 1764,
  "\u2581visit": 1765,
  "\u2581vital": 1766,
  "3:": 1767,
  "\u2581mako": 1768,
  "\u2581meet": 1769,
  "\u2581trials": 1770,
  "ww": 1771,
  "\u2581Jarito": 1772,
  "\u2581wayud": 1773,
  "ness": 1774,
  "\u2581Adier": 1775,
  "\u2581build": 1776,
  "\u2581guidance": 1777,
  "\u2581pachgi": 1778,
  "\u2581waluw": 1779,
  "\u2581Bed": 1780,
  "\u2581Nge": 1781,
  "\u2581accepted": 1782,
  "\u2581jopainia": 1783,
  "\u2581pages": 1784,
  "\u2581WENDE": 1785,
  "\u2581form": 1786,
  "\u2581gineno": 1787,
  "\u2581jahig": 1788,
  "\u2581okony": 1789,
  "\u2581People": 1790,
  "\u2581Saul": 1791,
  "\u2581abiriyo": 1792,
  "\u2581flesh": 1793,
  "\u2581nano": 1794,
  "\u2581ofis": 1795,
  "\u2581responsibility": 1796,
  "\u2581wapar": 1797,
  "\u2581mirima": 1798,
  "\u2581mowuok": 1799,
  "\u2581worldwide": 1800,
  "over": 1801,
  "\u2581Jewish": 1802,
  "\u2581Kamano": 1803,
  "\u2581influence": 1804,
  "\u2581working": 1805,
  "\u2581Lamo": 1806,
  "\u2581Their": 1807,
  "\u2581May": 1808,
  "\u2581nobed": 1809,
  "\u2581seek": 1810,
  "\u2581sudo": 1811,
  "\u2581branch": 1812,
  "\u2581encouragement": 1813,
  "\u2581moting": 1814,
  "\u2581public": 1815,
  "\u2581Trac": 1816,
  "\u2581reasons": 1817,
  "\u2581stay": 1818,
  "\u2581choose": 1819,
  "\u2581express": 1820,
  "\u2581owinjo": 1821,
  "\u2581joote": 1822,
  "\u2581led": 1823,
  "\u2581moler": 1824,
  "\u2581harmony": 1825,
  "\u2581Just": 1826,
  "\u2581assignment": 1827,
  "\u2581continued": 1828,
  "\u2581giyudo": 1829,
  "\u258111)": 1830,
  "\u2581action": 1831,
  "\u2581whose": 1832,
  "\u2581Have": 1833,
  "\u2581Ndalowa": 1834,
  "\u2581barua": 1835,
  "\u2581jarit": 1836,
  "\u2581kweth": 1837,
  "\u2581wetewa": 1838,
  "\u258128.": 1839,
  "\u2581Brother": 1840,
  "\u2581Jeremiah": 1841,
  "\u2581published": 1842,
  "\u2581within": 1843,
  "\u2581Janeno": 1844,
  "\u2581Later": 1845,
  "\u2581tijno": 1846,
  "\u2581tiyone": 1847,
  "\u2581training": 1848,
  "atno": 1849,
  "\u2581Egypt": 1850,
  "\u2581See": 1851,
  "\u2581grow": 1852,
  "\u2581Ezekiel": 1853,
  "\u2581examine": 1854,
  "\u2581wetene": 1855,
  "\u2581F": 1856,
  "\u2581Penjo": 1857,
  "\u2581hold": 1858,
  "\u2581jaode": 1859,
  "\u2581die": 1860,
  "\u2581mawacho": 1861,
  "\u2581nowinjo": 1862,
  "\u2581single": 1863,
  "ok": 1864,
  "\u2581First": 1865,
  "\u2581Roman": 1866,
  "\u2581desires": 1867,
  "\u2581therefore": 1868,
  "ting": 1869,
  "\u2581according": 1870,
  "\u2581concern": 1871,
  "\u2581conscience": 1872,
  "\u2581prayed": 1873,
  "\u2581wuotho": 1874,
  "\u258129.": 1875,
  "\u2581chop": 1876,
  "\u2581explained": 1877,
  "\u2581explains": 1878,
  "\u2581kodi": 1879,
  "\u2581protect": 1880,
  "\u2581proved": 1881,
  "\u2581Jacob": 1882,
  "\u2581Or": 1883,
  "\u2581dok": 1884,
  "\u2581fulfillment": 1885,
  "\u2581obey": 1886,
  "\u2581pogo": 1887,
  "\u2581position": 1888,
  "\u2581regular": 1889,
  "\u2581tried": 1890,
  "\u2581Juda": 1891,
  "\u2581created": 1892,
  "\u2581endure": 1893,
  "\u2581humility": 1894,
  "\u2581molony": 1895,
  "\u2581owuoyo": 1896,
  "\u2581wasik": 1897,
  "\u2581Hence": 1898,
  "\u2581call": 1899,
  "\u2581kuyo": 1900,
  "\u2581mogen": 1901,
  "\u2581provides": 1902,
  "\u2581tijwa": 1903,
  "\u2581clean": 1904,
  "\u2581min": 1905,
  "\u2581n": 1906,
  "\u2581Prov": 1907,
  "\u2581easy": 1908,
  "\u2581twak": 1909,
  "\u25812012": 1910,
  "\u2581Owete": 1911,
  "\u2581Wuod": 1912,
  "\u2581Wuoro": 1913,
  "\u2581further": 1914,
  "\u2581le": 1915,
  "\u2581mitimo": 1916,
  "\u2581welo": 1917,
  "ma": 1918,
  "\u2581BIBLE": 1919,
  "\u2581Mariko": 1920,
  "\u2581abich": 1921,
  "\u2581described": 1922,
  "\u2581gige": 1923,
  "\u2581wanyiso": 1924,
  "to": 1925,
  "\u2581earlier": 1926,
  "\u2581noyie": 1927,
  "N": 1928,
  "\u2581Efeso": 1929,
  "\u2581giwacho": 1930,
  "\u2581goal": 1931,
  "\u00a9": 1932,
  "\u2581attend": 1933,
  "\u2581jotend": 1934,
  "\u2581mawuok": 1935,
  "\u2581ogol": 1936,
  "\u2581opong": 1937,
  "\u2581rest": 1938,
  "\u2581zaburi": 1939,
  "\u2581(2": 1940,
  "\u2581knows": 1941,
  "\u2581ochuno": 1942,
  "\u2581psalmist": 1943,
  "\u2581Od": 1944,
  "\u2581U": 1945,
  "\u2581achako": 1946,
  "\u2581challenges": 1947,
  "\u2581realize": 1948,
  "\u2581teachings": 1949,
  "godly": 1950,
  "\u2581creation": 1951,
  "\u2581daily": 1952,
  "\u2581daughter": 1953,
  "\u2581jatich": 1954,
  "\u2581join": 1955,
  "\u2581noweyo": 1956,
  "\u2581challenge": 1957,
  "\u2581goals": 1958,
  "\u2581nyithindi": 1959,
  "\u2581servant": 1960,
  "\u2581picha": 1961,
  "\u2581warning": 1962,
  "m": 1963,
  "\u2581Heb": 1964,
  "\u2581Jal": 1965,
  "\u2581dwach": 1966,
  "\u2581kum": 1967,
  "\u2581mo": 1968,
  "\u2581offered": 1969,
  "w": 1970,
  "\u2581mamuol": 1971,
  "\u258131.": 1972,
  "\u2581decided": 1973,
  "\u2581gweng": 1974,
  "\u2581knowing": 1975,
  "\u2581met": 1976,
  "\u2581nindo": 1977,
  "\u2581raised": 1978,
  "Wuok": 1979,
  "\u258110)": 1980,
  "\u2581Really": 1981,
  "\u2581birth": 1982,
  "\u2581history": 1983,
  "\u2581interests": 1984,
  "\u2581lesson": 1985,
  "\u2581ondik": 1986,
  "\u2581regularly": 1987,
  "\u25816)": 1988,
  "\u2581Hib": 1989,
  "\u2581changes": 1990,
  "\u2581pain": 1991,
  "\u2581ywaruok": 1992,
  "),": 1993,
  "\u2581Eden": 1994,
  "\u25815)": 1995,
  "\u2581Duto": 1996,
  "\u2581carry": 1997,
  "\u2581several": 1998,
  "\u2581sovereignty": 1999,
  "\u2581wadak": 2000,
  "\u258150": 2001,
  "\u2581bedoe": 2002,
  "\u2581behalf": 2003,
  "\u2581Hall": 2004,
  "\u2581Mar": 2005,
  "\u2581Sani": 2006,
  "\u2581develop": 2007,
  "\u2581giduto": 2008,
  "\u2581gikone": 2009,
  "\u2581kodhi": 2010,
  "\u2581occasion": 2011,
  "Nyasaye": 2012,
  "most": 2013,
  "\u25817)": 2014,
  "\u2581encouraged": 2015,
  "\u2581kendgi": 2016,
  "\u2581non": 2017,
  "\u2581personality": 2018,
  "\u2581Gilead": 2019,
  "\u2581ahead": 2020,
  "\u2581greatest": 2021,
  "\u2581ineno": 2022,
  "\u2581jela": 2023,
  "\u2581nyiseche": 2024,
  "\u25812010": 2025,
  "\u258130.": 2026,
  "\u2581MUMA": 2027,
  "\u2581Rom": 2028,
  "\u2581York": 2029,
  "\u2581chi": 2030,
  "\u2581Hebrews": 2031,
  "\u2581Life": 2032,
  "\u2581chiwruok": 2033,
  "\u2581expect": 2034,
  "\u2581kong": 2035,
  "\u2581months": 2036,
  "\u2581owetewa": 2037,
  "\u2581wechegi": 2038,
  "Jehova": 2039,
  "able": 2040,
  "\u2581Injili": 2041,
  "\u2581Maria": 2042,
  "\u2581Tij": 2043,
  "\u2581okonywa": 2044,
  "\u2581proper": 2045,
  "\u2581seeking": 2046,
  "\u2581soul": 2047,
  "\u2581benefits": 2048,
  "\u2581nomedo": 2049,
  "\u2581nonego": 2050,
  "\u2581shall": 2051,
  "\u2581subject": 2052,
  "\u2581tin": 2053,
  "\u2581Perhaps": 2054,
  "\u2581behind": 2055,
  "\u2581discipline": 2056,
  "\u2581faced": 2057,
  "\u2581nindruok": 2058,
  "\u2581omiye": 2059,
  "\u2581ten": 2060,
  ",...": 2061,
  "on": 2062,
  "\u2581Yie": 2063,
  "\u2581everyone": 2064,
  "\u2581itim": 2065,
  "\u2581modern": 2066,
  "\u2581nyawadgi": 2067,
  "us": 2068,
  "\u25813)": 2069,
  "\u2581Asa": 2070,
  "\u258123,": 2071,
  "\u2581Before": 2072,
  "\u2581kindewagi": 2073,
  "\u2581manok": 2074,
  "\u2581osetimo": 2075,
  "\u2581strive": 2076,
  "\u2581tuoche": 2077,
  "okalo": 2078,
  "\u2581True": 2079,
  "\u2581allowed": 2080,
  "\u2581display": 2081,
  "\u2581learning": 2082,
  "\u2581particular": 2083,
  "\u2581practice": 2084,
  "\u2581takes": 2085,
  "\u2581tindo": 2086,
  "Y": 2087,
  "\u2581area": 2088,
  "\u2581bear": 2089,
  "\u2581cultivate": 2090,
  "\u2581enemies": 2091,
  "\u2581happen": 2092,
  "\u2581nang": 2093,
  "\u2581speech": 2094,
  "\u2581various": 2095,
  "\u258145": 2096,
  "\u2581Nyaminwa": 2097,
  "\u2581ago": 2098,
  "\u2581beyond": 2099,
  "\u2581blood": 2100,
  "\u2581discuss": 2101,
  "\u2581exercise": 2102,
  "\u2581morem": 2103,
  "\u2581ngero": 2104,
  "\u2581revealed": 2105,
  "\u2581turned": 2106,
  "\u258127.": 2107,
  "\u2581P": 2108,
  "\u2581Thoth": 2109,
  "\u2581expression": 2110,
  "\u2581luwore": 2111,
  "\u2581masani": 2112,
  "\u2581myself": 2113,
  "\u2581period": 2114,
  "\u2581quickly": 2115,
  "\u2581articles": 2116,
  "\u2581mak": 2117,
  "....": 2118,
  "\u2581Chuny": 2119,
  "\u2581addition": 2120,
  "\u2581genuine": 2121,
  "\u2581godo": 2122,
  "\u2581loyalty": 2123,
  "\u2581mogwaro": 2124,
  "\u2581nyasi": 2125,
  "\u2581ondiko": 2126,
  "\u2581progress": 2127,
  "anjo": 2128,
  "\u258118)": 2129,
  "\u2581above": 2130,
  "\u2581becoming": 2131,
  "\u2581chiemb": 2132,
  "\u2581hoch": 2133,
  "\u2581individual": 2134,
  "\u2581lowo": 2135,
  "\u2581malaika": 2136,
  "\u2581positive": 2137,
  "\u2581udi": 2138,
  "C": 2139,
  "\u258115)": 2140,
  "\u258126.": 2141,
  "\u2581United": 2142,
  "\u2581auchiel": 2143,
  "\u2581class": 2144,
  "\u2581include": 2145,
  "\u2581ochiw": 2146,
  "\u2581salvation": 2147,
  "\u2581studying": 2148,
  "\u2581wonder": 2149,
  "\u2581worked": 2150,
  "\u258155": 2151,
  "\u2581aneno": 2152,
  "\u2581bedogo": 2153,
  "\u2581beyo": 2154,
  "\u2581humble": 2155,
  "\u2581mere": 2156,
  "\u2581omed": 2157,
  "\u2581BE": 2158,
  "\u2581Chiw": 2159,
  "\u2581Love": 2160,
  "\u2581Sarah": 2161,
  "\u2581Tiyo": 2162,
  "\u2581convention": 2163,
  "\u2581kachiel": 2164,
  "\u2581konye": 2165,
  "\u2581praise": 2166,
  "\u2581stop": 2167,
  "ach": 2168,
  "\u2581Jeremia": 2169,
  "\u2581Samoro": 2170,
  "\u2581Sara": 2171,
  "\u2581picture": 2172,
  "\u2581steps": 2173,
  "\u2581tuech": 2174,
  "\u2581waparo": 2175,
  "\u25812011": 2176,
  "\u2581Similarly": 2177,
  "\u2581alive": 2178,
  "\u2581crowd": 2179,
  "\u2581door": 2180,
  "\u2581madho": 2181,
  "\u2581nyuol": 2182,
  "\u2581ohala": 2183,
  "\u2581prepare": 2184,
  "\u2581publications": 2185,
  "\u2581publishers": 2186,
  "\u2581Others": 2187,
  "\u2581enjoyed": 2188,
  "\u2581nofwenyo": 2189,
  "\u2581ochiwo": 2190,
  "\u2581personally": 2191,
  "\u2581waket": 2192,
  "\u2581wati": 2193,
  "\u2581koni": 2194,
  "\u2581quality": 2195,
  "\u2581resurrected": 2196,
  "\u2581winjruokwa": 2197,
  "yo": 2198,
  "\u258133.": 2199,
  "\u25818)": 2200,
  "\u2581basis": 2201,
  "\u2581image": 2202,
  "\u2581throughout": 2203,
  "\u258113)": 2204,
  "\u25812013": 2205,
  "\u258128,": 2206,
  "\u2581Keep": 2207,
  "\u2581Lawi": 2208,
  "\u2581batiso": 2209,
  "\u2581choice": 2210,
  "\u2581force": 2211,
  "\u2581koa": 2212,
  "\u2581sie": 2213,
  "\u2581treat": 2214,
  "\u2581wanyis": 2215,
  "ruok": 2216,
  "\u25814)": 2217,
  "\u2581Dwarore": 2218,
  "\u2581arrangement": 2219,
  "\u2581command": 2220,
  "\u2581flock": 2221,
  "\u2581government": 2222,
  "\u2581neighbor": 2223,
  "\u2581par": 2224,
  "\u2581pioneers": 2225,
  "\u2581ready": 2226,
  "ever": 2227,
  "\u2581100": 2228,
  "\u2581accounts": 2229,
  "\u2581deeply": 2230,
  "\u2581hinyo": 2231,
  "\u2581invited": 2232,
  "\u2581koth": 2233,
  "\u2581sacrifices": 2234,
  "ore": 2235,
  "\u258135.": 2236,
  "\u2581Ruth": 2237,
  "\u2581contain": 2238,
  "\u2581expressed": 2239,
  "\u2581importance": 2240,
  "\u2581laws": 2241,
  "\u2581walk": 2242,
  "\u2581wuode": 2243,
  "\u258121,": 2244,
  "\u2581Holy": 2245,
  "\u2581five": 2246,
  "\u2581held": 2247,
  "\u258117)": 2248,
  "\u2581Elisha": 2249,
  "\u2581closer": 2250,
  "\u2581looking": 2251,
  "\u2581poor": 2252,
  "\u2581results": 2253,
  "\u2581ruodhi": 2254,
  "\u258114)": 2255,
  "\u2581Witness": 2256,
  "\u2581chikene": 2257,
  "\u2581friendship": 2258,
  "\u2581joodwa": 2259,
  "\u2581mogo": 2260,
  "\u2581nei": 2261,
  "es": 2262,
  "\u2581Maber": 2263,
  "\u2581Puonjo": 2264,
  "\u2581Remember": 2265,
  "\u2581fulfilled": 2266,
  "\u2581imagine": 2267,
  "\u2581machuok": 2268,
  "\u2581office": 2269,
  "\u2581truths": 2270,
  "\u258138": 2271,
  "\u258141": 2272,
  "\u2581angel": 2273,
  "\u2581asking": 2274,
  "\u2581blessed": 2275,
  "\u2581forgive": 2276,
  "\u2581giyud": 2277,
  "\u2581kech": 2278,
  "\u2581overseer": 2279,
  "\u2581piyo": 2280,
  "\u258124,": 2281,
  "\u2581Gikone": 2282,
  "\u2581Teach": 2283,
  "\u2581kanisa": 2284,
  "\u2581millions": 2285,
  "\u2581okawo": 2286,
  "\u2581problem": 2287,
  "\u2581wich": 2288,
  "\u2581Footnote": 2289,
  "\u2581Most": 2290,
  "\u2581bread": 2291,
  "\u2581dweche": 2292,
  "\u2581entire": 2293,
  "\u2581ko": 2294,
  "\u2581original": 2295,
  "\u2581otudore": 2296,
  "\u258136": 2297,
  "\u2581chakruok": 2298,
  "\u2581demonstrate": 2299,
  "\u2581forward": 2300,
  "\u2581joodgi": 2301,
  "\u2581okonye": 2302,
  "\u2581France": 2303,
  "\u2581Fwe": 2304,
  "\u2581kowuok": 2305,
  "\u2581languages": 2306,
  "\u2581seed": 2307,
  "\u2581seven": 2308,
  "\u2581source": 2309,
  "\u2581waketo": 2310,
  "\u2581waluwo": 2311,
  "\u2581Mariam": 2312,
  "\u2581Wang": 2313,
  "\u2581activity": 2314,
  "\u2581destruction": 2315,
  "\u2581dwache": 2316,
  "\u2581enable": 2317,
  "\u2581indeed": 2318,
  "\u2581sound": 2319,
  "\u2581students": 2320,
  "\u2581Koro": 2321,
  "\u2581enough": 2322,
  "\u2581okaw": 2323,
  "\u2581Isaya": 2324,
  "\u2581TO": 2325,
  "\u2581forth": 2326,
  "\u2581sometimes": 2327,
  "like": 2328,
  "\u2581contribute": 2329,
  "\u2581jandik": 2330,
  "\u2581lwet": 2331,
  "\u2581miyogi": 2332,
  "r": 2333,
  "\u2581Also": 2334,
  "\u2581begin": 2335,
  "\u2581nyago": 2336,
  "\u2581pachi": 2337,
  "\u2581sign": 2338,
  "In": 2339,
  "\u2581actually": 2340,
  "\u2581chwech": 2341,
  "\u2581ginyiso": 2342,
  "\u2581kings": 2343,
  "\u2581matiyo": 2344,
  "\u2581pach": 2345,
  "\u2581pinyno": 2346,
  "\u2581According": 2347,
  "\u2581books": 2348,
  "\u2581completely": 2349,
  "\u2581less": 2350,
  "\u2581record": 2351,
  "\u2581returned": 2352,
  "\u2581tego": 2353,
  "\u2581Jonathan": 2354,
  "\u2581beginning": 2355,
  "\u2581compassion": 2356,
  "\u2581interested": 2357,
  "\u2581involves": 2358,
  "\u2581literature": 2359,
  "\u2581mopong": 2360,
  "\u2581nobedie": 2361,
  "\u2581Clearly": 2362,
  "\u2581assigned": 2363,
  "\u2581contrast": 2364,
  "\u2581dedicated": 2365,
  "\u2581explain": 2366,
  "\u2581favor": 2367,
  "\u2581malich": 2368,
  "\u2581nochiko": 2369,
  "\u2581ochak": 2370,
  "\u2581presence": 2371,
  "Kik": 2372,
  "\u2581119": 2373,
  "\u2581Another": 2374,
  "\u2581Ber": 2375,
  "\u2581Nathan": 2376,
  "\u2581Wachne": 2377,
  "\u2581assist": 2378,
  "\u2581bet": 2379,
  "\u2581chandore": 2380,
  "\u2581paradise": 2381,
  "\u2581traveling": 2382,
  "\u2581Puonjruok": 2383,
  "\u2581eat": 2384,
  "\u2581gana": 2385,
  "\u2581luongo": 2386,
  "\u2581sacred": 2387,
  "\u2581test": 2388,
  "\u2581wives": 2389,
  "\u258112)": 2390,
  "\u2581States": 2391,
  "\u2581Though": 2392,
  "\u2581added": 2393,
  "\u2581evening": 2394,
  "\u2581families": 2395,
  "\u2581odonjo": 2396,
  "An": 2397,
  "\u2581Babylon": 2398,
  "\u2581enter": 2399,
  "\u2581jodolo": 2400,
  "\u2581keeping": 2401,
  "\u2581mulo": 2402,
  "\u2581pogruok": 2403,
  "\u2581English": 2404,
  "\u2581Filipi": 2405,
  "\u2581Tem": 2406,
  "\u2581arrived": 2407,
  "\u2581circuit": 2408,
  "\u2581nolero": 2409,
  "\u2581opar": 2410,
  "\u2581realized": 2411,
  "\u2581reward": 2412,
  "\u2581sexual": 2413,
  "\u2581wayie": 2414,
  "Chakruok": 2415,
  "\u2581COVER": 2416,
  "\u2581Elija": 2417,
  "\u2581approach": 2418,
  "\u2581kite": 2419,
  "\u2581okor": 2420,
  "\u2581owe": 2421,
  "We": 2422,
  "\u2581Wuok": 2423,
  "\u2581answered": 2424,
  "\u2581caused": 2425,
  "\u2581job": 2426,
  "\u2581line": 2427,
  "\u2581ogolo": 2428,
  "\u2581pressure": 2429,
  "\u2581shown": 2430,
  "\u2581urged": 2431,
  "\u2581wamedo": 2432,
  "l": 2433,
  "\u2581Mapiyo": 2434,
  "\u2581awinjo": 2435,
  "\u2581centuries": 2436,
  "\u2581majaber": 2437,
  "\u2581mantie": 2438,
  "\u2581mercy": 2439,
  "\u2581response": 2440,
  "\u2581About": 2441,
  "\u2581Ler": 2442,
  "\u2581affection": 2443,
  "\u2581akwede": 2444,
  "\u2581jowetegi": 2445,
  "\u2581leaders": 2446,
  "\u2581miye": 2447,
  "\u2581moromo": 2448,
  "\u2581ote": 2449,
  "\u2581relatives": 2450,
  "\u2581wapuonjore": 2451,
  "\u2581whatever": 2452,
  "\u2581zeal": 2453,
  "\u2581Memorial": 2454,
  "\u2581chosen": 2455,
  "\u2581iparo": 2456,
  "\u2581liel": 2457,
  "\u2581omor": 2458,
  "\u2581patience": 2459,
  "\u2581reveal": 2460,
  "\u2581shepherd": 2461,
  "\u2581undeserved": 2462,
  "or": 2463,
  "\u2581'!": 2464,
  "\u2581Govern": 2465,
  "\u2581Rev": 2466,
  "\u2581Through": 2467,
  "\u2581associate": 2468,
  "\u2581atimo": 2469,
  "\u2581bugewa": 2470,
  "\u2581building": 2471,
  "\u2581key": 2472,
  "\u2581makelo": 2473,
  "\u2581nyawo": 2474,
  "\u2581onyal": 2475,
  "\u2581paragraph": 2476,
  "\u2581react": 2477,
  "\u2581recognize": 2478,
  "st": 2479,
  "\u2581Buk": 2480,
  "\u2581Great": 2481,
  "\u2581Non": 2482,
  "\u2581Questions": 2483,
  "\u2581cope": 2484,
  "\u2581fight": 2485,
  "If": 2486,
  "\u25812)": 2487,
  "\u258165": 2488,
  "\u2581dedication": 2489,
  "\u2581dwar": 2490,
  "\u2581fire": 2491,
  "\u2581followed": 2492,
  "\u2581seems": 2493,
  "\u2581shar": 2494,
  "\u2581voice": 2495,
  "ic": 2496,
  "\u2581G": 2497,
  "\u2581aware": 2498,
  "\u2581dewo": 2499,
  "\u2581firm": 2500,
  "\u2581jaoda": 2501,
  "\u2581jokanyo": 2502,
  "\u2581jonyuolgi": 2503,
  "\u2581madwaro": 2504,
  "\u2581makonyo": 2505,
  "\u2581term": 2506,
  "anyo": 2507,
  "\u2581carefully": 2508,
  "\u2581member": 2509,
  "\u2581moikore": 2510,
  "\u2581natural": 2511,
  "\u2581necessary": 2512,
  "\u2581nyithind": 2513,
  "\u2581situations": 2514,
  "\u2581trying": 2515,
  "en": 2516,
  "\u2581GASET": 2517,
  "\u2581Jopuonjre": 2518,
  "\u2581filled": 2519,
  "\u2581negative": 2520,
  "\u2581nyako": 2521,
  "\u2581owinj": 2522,
  "\u2581resist": 2523,
  "\u2581verse": 2524,
  "\u2581amor": 2525,
  "\u2581convinced": 2526,
  "\u2581forgiveness": 2527,
  "\u2581gichako": 2528,
  "\u2581marachni": 2529,
  "\u2581omiyowa": 2530,
  "\u2581program": 2531,
  "\u2581six": 2532,
  "\u2581spread": 2533,
  "\u2581Ahab": 2534,
  "\u2581abedo": 2535,
  "\u2581anger": 2536,
  "\u2581overcome": 2537,
  "\u2581yiewa": 2538,
  "weuru": 2539,
  "\u258170": 2540,
  "\u2581Ask": 2541,
  "\u2581Body": 2542,
  "\u2581STUD": 2543,
  "\u2581confident": 2544,
  "\u2581divai": 2545,
  "\u2581eventually": 2546,
  "\u2581included": 2547,
  "\u2581lack": 2548,
  "\u2581suffer": 2549,
  "\u2581ti": 2550,
  "Higini": 2551,
  "To": 2552,
  "\u2581Us": 2553,
  "\u2581ochop": 2554,
  "\u2581protection": 2555,
  "\u2581related": 2556,
  "\u2581rich": 2557,
  "\u2581side": 2558,
  "\u2581specific": 2559,
  "Do": 2560,
  "rang": 2561,
  "responsibilities": 2562,
  "\u2581Bug": 2563,
  "\u2581Gal": 2564,
  "\u2581Ruo": 2565,
  "\u2581South": 2566,
  "\u2581ariyogo": 2567,
  "\u2581church": 2568,
  "\u2581justice": 2569,
  "\u2581late": 2570,
  "\u2581mono": 2571,
  "\u2581moral": 2572,
  "\u2581valuable": 2573,
  "\u2581(2)": 2574,
  "\u25812009": 2575,
  "\u2581Australia": 2576,
  "\u2581Soon": 2577,
  "\u2581beautiful": 2578,
  "\u2581invitation": 2579,
  "\u2581jalo": 2580,
  "\u2581lot": 2581,
  "\u2581masiche": 2582,
  "\u2581moti": 2583,
  "\u2581obedient": 2584,
  "\u2581oluw": 2585,
  "\u2581simple": 2586,
  "\u2581text": 2587,
  "Ayub": 2588,
  "\u2581Ndalo": 2589,
  "\u2581R": 2590,
  "\u2581chuno": 2591,
  "\u2581fruit": 2592,
  "\u2581fulfill": 2593,
  "\u2581grateful": 2594,
  "\u2581mobedo": 2595,
  "\u2581olemo": 2596,
  "\u2581wasomo": 2597,
  "\u2581Japan": 2598,
  "\u2581Young": 2599,
  "\u2581brings": 2600,
  "\u2581chamo": 2601,
  "\u2581getting": 2602,
  "\u2581giparo": 2603,
  "\u2581prospect": 2604,
  "\u2581short": 2605,
  "\u2581spent": 2606,
  "\u2581WER": 2607,
  "\u2581disciple": 2608,
  "\u2581experiences": 2609,
  "\u2581priests": 2610,
  "\u2581reso": 2611,
  "\u2581week": 2612,
  "\u2581(1)": 2613,
  "\u258160": 2614,
  "\u2581Gen": 2615,
  "\u2581condition": 2616,
  "\u2581jahera": 2617,
  "\u2581lessons": 2618,
  "\u2581medore": 2619,
  "\u2581ndi": 2620,
  "\u2581nosebedo": 2621,
  "\u2581parent": 2622,
  "\u2581puodho": 2623,
  "\u2581siasa": 2624,
  "\u2581understood": 2625,
  "\u2581walking": 2626,
  "\u2581yueyo": 2627,
  "\u2581MON": 2628,
  "\u2581appropriate": 2629,
  "\u2581ayudo": 2630,
  "\u2581evil": 2631,
  "\u2581gimor": 2632,
  "\u2581jip": 2633,
  "\u2581lose": 2634,
  "\u2581nochung": 2635,
  "\u2581ochiko": 2636,
  "\u2581ogendni": 2637,
  "\u2581standing": 2638,
  "\u2581territory": 2639,
  "\u2581wawe": 2640,
  "\u2581adimba": 2641,
  "\u2581conditions": 2642,
  "\u2581guide": 2643,
  "\u2581nam": 2644,
  "\u2581travel": 2645,
  "\u2581tree": 2646,
  "out": 2647,
  "\u2581April": 2648,
  "\u2581Har": 2649,
  "\u2581Imagine": 2650,
  "\u2581Luo": 2651,
  "\u2581approval": 2652,
  "\u2581association": 2653,
  "\u2581devotion": 2654,
  "\u2581gini": 2655,
  "\u2581meant": 2656,
  "\u2581opposition": 2657,
  "\u2581rumo": 2658,
  "\u2581teaches": 2659,
  "\u2581tudruok": 2660,
  "\u2581workers": 2661,
  "evertheless": 2662,
  "\u2581Isaka": 2663,
  "\u2581Joot": 2664,
  "\u2581final": 2665,
  "\u2581jomotho": 2666,
  "\u2581otieno": 2667,
  "j": 2668,
  "\u2581Abel": 2669,
  "\u2581Elijah": 2670,
  "\u2581IN": 2671,
  "\u2581Isaac": 2672,
  "\u2581conclusion": 2673,
  "\u2581general": 2674,
  "\u2581offering": 2675,
  "\u2581owuo": 2676,
  "\u2581pinyka": 2677,
  "\u2581places": 2678,
  "\u2581siro": 2679,
  "\u2581universe": 2680,
  "\u2581wil": 2681,
  "Be": 2682,
  "Ok": 2683,
  "\u2581Jonyuol": 2684,
  "\u2581OTI": 2685,
  "\u2581aparo": 2686,
  "\u2581del": 2687,
  "\u2581foreign": 2688,
  "\u2581gihero": 2689,
  "\u2581hours": 2690,
  "\u2581jootene": 2691,
  "\u2581joricho": 2692,
  "\u2581missionary": 2693,
  "\u2581month": 2694,
  "\u2581owadgi": 2695,
  "\u2581sort": 2696,
  "EGO": 2697,
  "\u2581Further": 2698,
  "\u2581Regard": 2699,
  "\u2581attending": 2700,
  "\u2581gifts": 2701,
  "\u2581jorit": 2702,
  "\u2581prophecies": 2703,
  "\u2581remind": 2704,
  "\u2581spoken": 2705,
  "\u2581wuoth": 2706,
  "wech": 2707,
  "\u2581Maler": 2708,
  "\u2581Nade": 2709,
  "\u2581School": 2710,
  "\u2581conversation": 2711,
  "\u2581discreet": 2712,
  "\u2581jaodi": 2713,
  "\u2581meditate": 2714,
  "\u2581mochung": 2715,
  "\u2581motimo": 2716,
  "\u2581opportunities": 2717,
  "\u2581pidho": 2718,
  "\u2581rejoice": 2719,
  "\u2581Give": 2720,
  "\u2581Nyasachwa": 2721,
  "\u2581Ruodhwa": 2722,
  "\u2581acts": 2723,
  "\u2581areas": 2724,
  "\u2581beliefs": 2725,
  "\u2581itself": 2726,
  "\u2581morning": 2727,
  "\u2581oparo": 2728,
  "\u2581passed": 2729,
  "\u2581wawinjo": 2730,
  "\u2581yourselves": 2731,
  "\u2581Was": 2732,
  "\u2581Where": 2733,
  "\u2581agree": 2734,
  "\u2581effective": 2735,
  "\u2581eight": 2736,
  "\u2581household": 2737,
  "\u2581kanye": 2738,
  "\u2581kaw": 2739,
  "\u2581pacha": 2740,
  "\u2581practices": 2741,
  "\u2581praying": 2742,
  "\u2581race": 2743,
  "\u2581step": 2744,
  "\u2581success": 2745,
  "\u2581warruok": 2746,
  "\u2581Her": 2747,
  "\u2581Robert": 2748,
  "\u2581Rome": 2749,
  "\u2581feeling": 2750,
  "\u2581former": 2751,
  "\u2581nomiye": 2752,
  "\u2581owuok": 2753,
  "\u2581apoya": 2754,
  "\u2581consequences": 2755,
  "\u2581least": 2756,
  "\u2581loves": 2757,
  "\u2581prison": 2758,
  "\u2581thieth": 2759,
  "Higni": 2760,
  "ULA": 2761,
  "\u2581Farao": 2762,
  "\u2581GODO": 2763,
  "\u2581Paradise": 2764,
  "\u2581duogo": 2765,
  "\u2581gino": 2766,
  "\u2581nodwoko": 2767,
  "\u2581nogolo": 2768,
  "\u2581oromo": 2769,
  "\u2581p": 2770,
  "\u2581prepared": 2771,
  "\u2581siso": 2772,
  "\u2581watang": 2773,
  "\u258144": 2774,
  "\u2581Chakr": 2775,
  "\u2581Gie": 2776,
  "\u2581Judas": 2777,
  "\u2581nok": 2778,
  "\u2581nopenjo": 2779,
  "\u2581nyadi": 2780,
  "\u2581obedience": 2781,
  "\u2581priest": 2782,
  "\u258132.": 2783,
  "\u2581Esau": 2784,
  "\u2581Lweny": 2785,
  "\u2581deliver": 2786,
  "\u2581fweny": 2787,
  "\u2581grew": 2788,
  "\u2581japuonjre": 2789,
  "\u2581nyathini": 2790,
  "\u2581nyithinde": 2791,
  "\u2581preached": 2792,
  "\u2581pure": 2793,
  "\u2581ritruok": 2794,
  "\u2581zealous": 2795,
  "It": 2796,
  "est": 2797,
  "ve": 2798,
  "\u2581Babulon": 2799,
  "\u2581Tiend": 2800,
  "\u2581beloved": 2801,
  "\u2581ire": 2802,
  "\u2581ndawa": 2803,
  "\u2581nonyalo": 2804,
  "\u2581pacho": 2805,
  "\u2581pinyruoth": 2806,
  "\u2581political": 2807,
  "\u2581sincere": 2808,
  "\u2581write": 2809,
  "\u258116)": 2810,
  "\u2581Dho": 2811,
  "\u2581Germany": 2812,
  "\u2581Think": 2813,
  "\u2581guard": 2814,
  "\u2581mosebedo": 2815,
  "\u2581nogoyo": 2816,
  "\u2581nokelo": 2817,
  "\u2581olos": 2818,
  "\u2581opened": 2819,
  "\u2581prevent": 2820,
  "\u2581reasonable": 2821,
  "\u2581spend": 2822,
  "\u2581student": 2823,
  "\u2581wabi": 2824,
  "\u2581warned": 2825,
  "\u2581wer": 2826,
  "\u25811)": 2827,
  "\u258134.": 2828,
  "\u2581accomplish": 2829,
  "\u2581anxiety": 2830,
  "\u2581encouraging": 2831,
  "\u2581immediately": 2832,
  "\u2581manifest": 2833,
  "\u2581offspring": 2834,
  "\u2581oyiego": 2835,
  "\u2581privileges": 2836,
  "c": 2837,
  "\u258148": 2838,
  "\u2581Judah": 2839,
  "\u2581OF": 2840,
  "\u2581WHAT": 2841,
  "\u2581adwaro": 2842,
  "\u2581attended": 2843,
  "\u2581destroyed": 2844,
  "\u2581dwol": 2845,
  "\u2581education": 2846,
  "\u2581elderly": 2847,
  "\u2581failed": 2848,
  "\u2581heartfelt": 2849,
  "\u2581jatichno": 2850,
  "\u2581kecho": 2851,
  "\u2581noluwo": 2852,
  "\u2581notho": 2853,
  "\u2581observe": 2854,
  "\u2581relates": 2855,
  "\u2581required": 2856,
  "\u2581thousands": 2857,
  "\u258129,": 2858,
  "\u2581abiro": 2859,
  "\u2581discern": 2860,
  "\u2581misumba": 2861,
  "\u2581obadho": 2862,
  "\u2581te": 2863,
  "\u2581wigi": 2864,
  "When": 2865,
  "\u2581Russia": 2866,
  "\u2581hono": 2867,
  "\u2581ilo": 2868,
  "\u2581kelonwa": 2869,
  "\u2581ochakore": 2870,
  "\u2581oketh": 2871,
  "\u2581referred": 2872,
  "\u2581ruodh": 2873,
  "\u2581seeing": 2874,
  "\u2581timbegi": 2875,
  "\u2581violence": 2876,
  "Let": 2877,
  "Rapar": 2878,
  "\u2581fruitage": 2879,
  "\u2581hour": 2880,
  "\u2581includes": 2881,
  "\u2581janyuol": 2882,
  "\u2581kalo": 2883,
  "\u2581mamalo": 2884,
  "\u2581okendore": 2885,
  "\u2581onyuol": 2886,
  "\u2581orwako": 2887,
  "\u2581pursue": 2888,
  "\u2581town": 2889,
  "\u2581uses": 2890,
  "eye": 2891,
  "\u258127,": 2892,
  "\u2581Brazil": 2893,
  "\u2581Magedon": 2894,
  "\u2581Miyo": 2895,
  "\u2581aboro": 2896,
  "\u2581army": 2897,
  "\u2581aspects": 2898,
  "\u2581lands": 2899,
  "\u2581maloyo": 2900,
  "\u2581measure": 2901,
  "\u2581ndikono": 2902,
  "\u2581persecution": 2903,
  "\u2581raise": 2904,
  "\u2581Ki": 2905,
  "\u2581fill": 2906,
  "\u2581nopuonjo": 2907,
  "\u2581otimre": 2908,
  "\u2581owetene": 2909,
  "\u2581satisfaction": 2910,
  "\u2581wait": 2911,
  "h": 2912,
  "owuoyo": 2913,
  "\u2581Koso": 2914,
  "\u2581assured": 2915,
  "\u2581danger": 2916,
  "\u2581destroy": 2917,
  "\u2581horuok": 2918,
  "\u2581maggi": 2919,
  "\u2581odag": 2920,
  "\u2581okonyi": 2921,
  "\u2581penjono": 2922,
  "\u2581thuologi": 2923,
  "\u2581tuke": 2924,
  "\u2581Family": 2925,
  "\u2581Sa": 2926,
  "\u2581ahero": 2927,
  "\u2581atim": 2928,
  "\u2581calls": 2929,
  "\u2581giwinjo": 2930,
  "\u2581limited": 2931,
  "\u2581nodwaro": 2932,
  "\u2581pak": 2933,
  "\u2581studies": 2934,
  "\u2581tiego": 2935,
  "\u2581youth": 2936,
  "g": 2937,
  "ive": 2938,
  "ongo": 2939,
  "\u2581Spain": 2940,
  "\u2581chokruogewa": 2941,
  "\u2581improve": 2942,
  "\u2581jaber": 2943,
  "\u2581ki": 2944,
  "\u2581limo": 2945,
  "\u2581noparo": 2946,
  "\u2581obedie": 2947,
  "\u2581ringo": 2948,
  "\u2581temptation": 2949,
  "\u2581wamed": 2950,
  "Zaburi": 2951,
  "\u2581Judea": 2952,
  "\u2581Know": 2953,
  "\u2581Skul": 2954,
  "\u2581delight": 2955,
  "\u2581hikgi": 2956,
  "\u2581lela": 2957,
  "\u2581machal": 2958,
  "\u2581nyiminewa": 2959,
  "\u2581oter": 2960,
  "\u2581wuonwa": 2961,
  "\u2581Ephesians": 2962,
  "\u2581Kwan": 2963,
  "\u2581Mani": 2964,
  "\u2581Mor": 2965,
  "\u2581WACH": 2966,
  "\u2581basic": 2967,
  "\u2581battle": 2968,
  "\u2581chiero": 2969,
  "\u2581contact": 2970,
  "\u2581declared": 2971,
  "\u2581discussed": 2972,
  "\u2581emotional": 2973,
  "\u2581giyie": 2974,
  "\u2581loss": 2975,
  "\u2581matimore": 2976,
  "\u2581relief": 2977,
  "\u2581separate": 2978,
  "\u2581wachako": 2979,
  "\u2581watch": 2980,
  "ould": 2981,
  "\u2581(3)": 2982,
  "\u258139": 2983,
  "\u2581H": 2984,
  "\u2581Jotich": 2985,
  "\u2581al": 2986,
  "\u2581ark": 2987,
  "\u2581caring": 2988,
  "\u2581event": 2989,
  "\u2581fail": 2990,
  "\u2581miles": 2991,
  "\u2581mokuwe": 2992,
  "\u2581norwako": 2993,
  "\u2581odong": 2994,
  "\u2581oseyudo": 2995,
  "\u2581pay": 2996,
  "\u2581succeed": 2997,
  "\u2581tekone": 2998,
  "\u2581train": 2999,
  "\u2581visited": 3000,
  "\u25812008": 3001,
  "\u2581Adiera": 3002,
  "\u2581NE": 3003,
  "\u2581PUONJRUOK": 3004,
  "\u2581Pharaoh": 3005,
  "\u2581affected": 3006,
  "\u2581endurance": 3007,
  "\u2581hinyruok": 3008,
  "\u2581maromo": 3009,
  "\u2581matayo": 3010,
  "\u2581odiechienge": 3011,
  "\u2581outside": 3012,
  "\u2581request": 3013,
  "\u2581wawuoyo": 3014,
  "an": 3015,
  "\u258126,": 3016,
  "\u2581Being": 3017,
  "\u2581Rahab": 3018,
  "\u2581assure": 3019,
  "\u2581break": 3020,
  "\u2581claim": 3021,
  "\u2581either": 3022,
  "\u2581enemy": 3023,
  "\u2581existence": 3024,
  "\u2581giketo": 3025,
  "\u2581muolo": 3026,
  "\u2581notemo": 3027,
  "\u2581notice": 3028,
  "\u2581vision": 3029,
  "iewo": 3030,
  "\u2581abed": 3031,
  "\u2581concerned": 3032,
  "\u2581jolup": 3033,
  "\u2581nature": 3034,
  "\u2581nokwayo": 3035,
  "\u2581note": 3036,
  "\u2581sick": 3037,
  "\u2581sinful": 3038,
  "\u2581tiegruok": 3039,
  "\u2581translation": 3040,
  "\u2581wetegi": 3041,
  "\u2581acceptable": 3042,
  "\u2581accurate": 3043,
  "\u2581bless": 3044,
  "\u2581concerning": 3045,
  "\u2581don": 3046,
  "\u2581endeavor": 3047,
  "\u2581eye": 3048,
  "\u2581feet": 3049,
  "\u2581manner": 3050,
  "\u2581ponografi": 3051,
  "\u2581refers": 3052,
  "\u2581remained": 3053,
  "\u2581state": 3054,
  "\u2581suffered": 3055,
  "more": 3056,
  "\u258130:": 3057,
  "\u2581Dhano": 3058,
  "\u2581Mat": 3059,
  "\u2581forget": 3060,
  "\u2581giluwo": 3061,
  "\u2581illustrate": 3062,
  "\u2581mokor": 3063,
  "\u2581nokwongo": 3064,
  "\u2581waromo": 3065,
  "\u2581ywak": 3066,
  "This": 3067,
  "\u2581Explain": 3068,
  "\u2581Ingresa": 3069,
  "\u2581Loch": 3070,
  "\u2581Should": 3071,
  "\u2581helpful": 3072,
  "\u2581indicated": 3073,
  "\u2581insight": 3074,
  "\u2581magwa": 3075,
  "\u2581noriwo": 3076,
  "\u2581noyiero": 3077,
  "\u2581ogo": 3078,
  "\u2581okonya": 3079,
  "\u2581rely": 3080,
  "\u2581security": 3081,
  "\u2581yath": 3082,
  "jw": 3083,
  "\u2581Note": 3084,
  "\u2581Spirit": 3085,
  "\u2581box": 3086,
  "\u2581chulo": 3087,
  "\u2581comments": 3088,
  "\u2581consideration": 3089,
  "\u2581describes": 3090,
  "\u2581iwuoyo": 3091,
  "\u2581mondik": 3092,
  "\u2581overseers": 3093,
  "\u2581produce": 3094,
  "\u2581rit": 3095,
  "\u2581tongue": 3096,
  "\u2581younger": 3097,
  "\u2581Africa": 3098,
  "\u2581Learn": 3099,
  "\u2581Worship": 3100,
  "\u2581appear": 3101,
  "\u2581busy": 3102,
  "\u2581chando": 3103,
  "\u2581chose": 3104,
  "\u2581chuech": 3105,
  "\u2581energy": 3106,
  "\u2581extent": 3107,
  "\u2581fall": 3108,
  "\u2581idea": 3109,
  "\u2581immorality": 3110,
  "\u2581looked": 3111,
  "\u2581minds": 3112,
  "\u2581promote": 3113,
  "\u2581riches": 3114,
  "\u2581save": 3115,
  "\u2581subjects": 3116,
  "\u2581tugo": 3117,
  "\u2581warm": 3118,
  "ich": 3119,
  "\u2581Intanet": 3120,
  "\u2581Mexico": 3121,
  "\u2581Over": 3122,
  "\u2581distrikt": 3123,
  "\u2581iwinjo": 3124,
  "\u2581jaloch": 3125,
  "\u2581judge": 3126,
  "\u2581kilo": 3127,
  "\u2581lewni": 3128,
  "\u2581listening": 3129,
  "\u2581okonyo": 3130,
  "\u2581secular": 3131,
  "\u2581wakaw": 3132,
  "mita": 3133,
  "\u2581Dibed": 3134,
  "\u2581becomes": 3135,
  "\u2581betie": 3136,
  "\u2581giweyo": 3137,
  "\u2581master": 3138,
  "\u2581moket": 3139,
  "\u2581molos": 3140,
  "\u2581obet": 3141,
  "\u2581onyosore": 3142,
  "\u2581principle": 3143,
  "He": 3144,
  "\u2581Dichwo": 3145,
  "\u2581Gospel": 3146,
  "\u2581Na": 3147,
  "\u2581Students": 3148,
  "\u2581boy": 3149,
  "\u2581directed": 3150,
  "\u2581entertainment": 3151,
  "\u2581gaset": 3152,
  "\u2581kindly": 3153,
  "\u2581kuomu": 3154,
  "\u2581leading": 3155,
  "\u2581mental": 3156,
  "\u2581omiwa": 3157,
  "\u2581send": 3158,
  "\u2581Kare": 3159,
  "\u2581active": 3160,
  "\u2581appeared": 3161,
  "\u2581barupe": 3162,
  "\u2581greatly": 3163,
  "\u2581growth": 3164,
  "\u2581half": 3165,
  "\u2581jomage": 3166,
  "\u2581jopuonj": 3167,
  "\u2581points": 3168,
  "\u2581pride": 3169,
  "\u2581rem": 3170,
  "\u2581scriptures": 3171,
  "\u2581third": 3172,
  "\u2581viewed": 3173,
  "\u2581wechene": 3174,
  "dirom": 3175,
  "\u2581Eph": 3176,
  "\u2581Philippians": 3177,
  "\u2581Russell": 3178,
  "\u2581di": 3179,
  "\u2581identify": 3180,
  "\u2581ket": 3181,
  "\u2581lwenje": 3182,
  "\u2581nyise": 3183,
  "\u2581osiepene": 3184,
  "\u2581play": 3185,
  "\u2581relative": 3186,
  "\u2581teacher": 3187,
  "\u2581unique": 3188,
  "\u2581warito": 3189,
  "\u2581wuod": 3190,
  "ol": 3191,
  "\u258131,": 3192,
  "\u2581Armageddon": 3193,
  "\u2581Jehu": 3194,
  "\u2581Joel": 3195,
  "\u2581Pictures": 3196,
  "\u2581bugno": 3197,
  "\u2581communication": 3198,
  "\u2581huma": 3199,
  "\u2581idwaro": 3200,
  "\u2581indicate": 3201,
  "\u2581jakwath": 3202,
  "\u2581occur": 3203,
  "\u2581ofwenyo": 3204,
  "\u2581osenyiso": 3205,
  "\u2581parts": 3206,
  "\u2581receiving": 3207,
  "\u2581richogi": 3208,
  "\u2581sex": 3209,
  "\u2581verses": 3210,
  "\u2581wageno": 3211,
  "\u2581yien": 3212,
  "Kwan": 3213,
  "afwenyo": 3214,
  "bende": 3215,
  "nu": 3216,
  "\u2581Good": 3217,
  "\u2581adds": 3218,
  "\u2581distress": 3219,
  "\u2581evident": 3220,
  "\u2581harm": 3221,
  "\u2581immoral": 3222,
  "\u2581issues": 3223,
  "\u2581konya": 3224,
  "\u2581wuowi": 3225,
  "\u2581Efe": 3226,
  "\u2581Kanyakla": 3227,
  "\u2581Maritha": 3228,
  "\u2581War": 3229,
  "\u2581bond": 3230,
  "\u2581car": 3231,
  "\u2581challenging": 3232,
  "\u2581dear": 3233,
  "\u2581girl": 3234,
  "\u2581hoyo": 3235,
  "\u2581kwa": 3236,
  "\u2581magazine": 3237,
  "\u2581nokonye": 3238,
  "\u2581normal": 3239,
  "\u2581oloko": 3240,
  "\u2581translated": 3241,
  "nyaka": 3242,
  "one": 3243,
  "yalo": 3244,
  "\u258134,": 3245,
  "\u2581Loko": 3246,
  "\u2581creatures": 3247,
  "\u2581expected": 3248,
  "\u2581invite": 3249,
  "\u2581luo": 3250,
  "\u2581meal": 3251,
  "\u2581odok": 3252,
  "\u2581oketho": 3253,
  "\u2581pleasure": 3254,
  "\u2581room": 3255,
  "\u2581successful": 3256,
  "\u2581type": 3257,
  "\u2581Katholik": 3258,
  "\u2581Mount": 3259,
  "\u2581anyuola": 3260,
  "\u2581apuonjora": 3261,
  "\u2581assistance": 3262,
  "\u2581believed": 3263,
  "\u2581built": 3264,
  "\u2581conclude": 3265,
  "\u2581countries": 3266,
  "\u2581direct": 3267,
  "\u2581faithfully": 3268,
  "\u2581freely": 3269,
  "\u2581gode": 3270,
  "\u2581masie": 3271,
  "\u2581million": 3272,
  "\u2581na": 3273,
  "\u2581nosingo": 3274,
  "\u2581paragraphs": 3275,
  "\u2581rejected": 3276,
  "\u2581requires": 3277,
  "\u2581sees": 3278,
  "\u2581statement": 3279,
  "\u2581u": 3280,
  "\u00b7": 3281,
  "\u258119)": 3282,
  "\u2581YOU": 3283,
  "\u2581applied": 3284,
  "\u2581engage": 3285,
  "\u2581focused": 3286,
  "\u2581ground": 3287,
  "\u2581honest": 3288,
  "\u2581lo": 3289,
  "\u2581matimo": 3290,
  "\u2581osin": 3291,
  "\u2581teachers": 3292,
  "\u258130,": 3293,
  "\u258146": 3294,
  "\u2581Hezekia": 3295,
  "\u2581evidently": 3296,
  "\u2581finally": 3297,
  "\u2581instead": 3298,
  "\u2581iti": 3299,
  "\u2581mawuoyo": 3300,
  "\u2581noted": 3301,
  "\u2581omakore": 3302,
  "\u2581patient": 3303,
  "\u2581penjore": 3304,
  "\u2581recent": 3305,
  "\u2581Babilon": 3306,
  "\u2581Make": 3307,
  "\u2581Podi": 3308,
  "\u2581Study": 3309,
  "\u2581anyal": 3310,
  "\u2581cares": 3311,
  "\u2581chutho": 3312,
  "\u2581front": 3313,
  "\u2581grasp": 3314,
  "\u2581hurt": 3315,
  "\u2581iketo": 3316,
  "\u2581itiyogo": 3317,
  "\u2581lie": 3318,
  "\u2581ogeno": 3319,
  "\u2581paronwa": 3320,
  "\u2581slaves": 3321,
  "\u2581strengthened": 3322,
  "\u2581twech": 3323,
  "\u2581witnessing": 3324,
  "\u258149": 3325,
  "\u2581Ibiro": 3326,
  "\u2581Noyudo": 3327,
  "\u2581Rowere": 3328,
  "\u2581careful": 3329,
  "\u2581chunyu": 3330,
  "\u2581gocho": 3331,
  "\u2581harvest": 3332,
  "\u2581km": 3333,
  "\u2581ku": 3334,
  "\u2581milion": 3335,
  "\u2581motho": 3336,
  "\u2581outstanding": 3337,
  "\u2581refused": 3338,
  "\u2581reject": 3339,
  "\u2581ute": 3340,
  "ually": 3341,
  "\u2581144,000": 3342,
  "\u2581Contents": 3343,
  "\u2581Help": 3344,
  "\u2581Land": 3345,
  "\u2581awuon": 3346,
  "\u2581closely": 3347,
  "\u2581cut": 3348,
  "\u2581decide": 3349,
  "\u2581design": 3350,
  "\u2581determine": 3351,
  "\u2581easily": 3352,
  "\u2581established": 3353,
  "\u2581facts": 3354,
  "\u2581gasede": 3355,
  "\u2581itiyo": 3356,
  "\u2581jochiende": 3357,
  "\u2581makore": 3358,
  "\u2581none": 3359,
  "\u2581omako": 3360,
  "\u2581oro": 3361,
  "\u2581piche": 3362,
  "\u2581pleased": 3363,
  "\u2581presented": 3364,
  "\u2581responded": 3365,
  "\u258144.": 3366,
  "\u2581JI": 3367,
  "\u2581Kolosai": 3368,
  "\u2581Table": 3369,
  "\u2581Wi": 3370,
  "\u2581adopt": 3371,
  "\u2581applying": 3372,
  "\u2581bearing": 3373,
  "\u2581cases": 3374,
  "\u2581ginyal": 3375,
  "\u2581increase": 3376,
  "\u2581lokruoge": 3377,
  "\u2581nonyise": 3378,
  "\u2581po": 3379,
  "\u2581refuge": 3380,
  "\u2581responsible": 3381,
  "\u2581trained": 3382,
  "My": 3383,
  "quite": 3384,
  "\u2581Wachno": 3385,
  "\u2581big": 3386,
  "\u2581correct": 3387,
  "\u2581demons": 3388,
  "\u2581dhakono": 3389,
  "\u2581homes": 3390,
  "\u2581likewise": 3391,
  "\u2581mistakes": 3392,
  "\u2581obatisi": 3393,
  "\u2581omedo": 3394,
  "\u2581tir": 3395,
  "\u2581wanono": 3396,
  "\u2581willingly": 3397,
  "\u2581wish": 3398,
  "\u2581yamo": 3399,
  "ling": 3400,
  "mong": 3401,
  "\u2581Knorr": 3402,
  "\u2581Nyasach": 3403,
  "\u2581Only": 3404,
  "\u2581attack": 3405,
  "\u2581emomiyo": 3406,
  "\u2581limbe": 3407,
  "\u2581malero": 3408,
  "\u2581matir": 3409,
  "\u2581ode": 3410,
  "\u2581pim": 3411,
  "\u2581represent": 3412,
  "\u2581reveals": 3413,
  "\u2581tony": 3414,
  "\u2581youths": 3415,
  "\u2581\"!": 3416,
  "\u2581England": 3417,
  "\u2581Faith": 3418,
  "\u2581Hezekiah": 3419,
  "\u2581High": 3420,
  "\u2581gotieno": 3421,
  "\u2581groups": 3422,
  "\u2581jonyuolna": 3423,
  "\u2581keyo": 3424,
  "\u2581noloko": 3425,
  "\u2581nowuok": 3426,
  "\u2581nyagore": 3427,
  "\u2581orit": 3428,
  "\u2581osik": 3429,
  "\u2581otamore": 3430,
  "\u2581owang": 3431,
  "\u2581pass": 3432,
  "\u2581thank": 3433,
  "Ekl": 3434,
  "\u2581Hav": 3435,
  "\u2581Well": 3436,
  "\u2581chakore": 3437,
  "\u2581concerns": 3438,
  "\u2581drawn": 3439,
  "\u2581drink": 3440,
  "\u2581escape": 3441,
  "\u2581eternal": 3442,
  "\u2581garden": 3443,
  "\u2581hearing": 3444,
  "\u2581legal": 3445,
  "\u2581names": 3446,
  "\u2581nose": 3447,
  "\u2581oherowa": 3448,
  "\u2581remo": 3449,
  "\u2581report": 3450,
  "\u2581sight": 3451,
  "\u2581wickedness": 3452,
  "Jesus": 3453,
  "tamore": 3454,
  "\u2581Asia": 3455,
  "\u2581Ute": 3456,
  "\u2581amount": 3457,
  "\u2581animals": 3458,
  "\u2581aspect": 3459,
  "\u2581chudo": 3460,
  "\u2581companions": 3461,
  "\u2581essential": 3462,
  "\u2581expressions": 3463,
  "\u2581kambi": 3464,
  "\u2581konyiso": 3465,
  "\u2581minwa": 3466,
  "\u2581mitiyogo": 3467,
  "\u2581nokonya": 3468,
  "\u2581nomako": 3469,
  "\u2581oseketo": 3470,
  "\u2581primary": 3471,
  "\u2581prophets": 3472,
  "\u2581sulwe": 3473,
  "\u2581trial": 3474,
  "all": 3475,
  "and": 3476,
  "osaic": 3477,
  "\u2581Brooklyn": 3478,
  "\u2581Likewise": 3479,
  "\u2581Mantie": 3480,
  "\u2581acted": 3481,
  "\u2581atiyo": 3482,
  "\u2581cities": 3483,
  "\u2581continues": 3484,
  "\u2581courageous": 3485,
  "\u2581dichiel": 3486,
  "\u2581divorce": 3487,
  "\u2581illness": 3488,
  "\u2581killed": 3489,
  "\u2581mahundu": 3490,
  "\u2581mtoka": 3491,
  "\u2581okonygi": 3492,
  "\u2581penjogo": 3493,
  "\u2581ringre": 3494,
  "\u2581rulership": 3495,
  "\u2581telling": 3496,
  "\u2581theocratic": 3497,
  "koro": 3498,
  "ur": 3499,
  "\u02b9": 3500,
  "\u258138.": 3501,
  "\u2581Dhi": 3502,
  "\u2581Finally": 3503,
  "\u2581Kend": 3504,
  "\u2581Martha": 3505,
  "\u2581WUOYOE": 3506,
  "\u2581contrary": 3507,
  "\u2581dealings": 3508,
  "\u2581god": 3509,
  "\u2581grief": 3510,
  "\u2581instructions": 3511,
  "\u2581kom": 3512,
  "\u2581letters": 3513,
  "\u2581migawono": 3514,
  "\u2581nooro": 3515,
  "\u2581osuru": 3516,
  "\u2581pioneering": 3517,
  "\u2581rieyo": 3518,
  "\u2581survive": 3519,
  "\u2581tinde": 3520,
  "otang": 3521,
  "\u258120)": 3522,
  "\u2581Readers": 3523,
  "\u2581THIS": 3524,
  "\u2581considering": 3525,
  "\u2581forgiving": 3526,
  "\u2581gimaduong": 3527,
  "\u2581injustice": 3528,
  "\u2581inside": 3529,
  "\u2581jadolo": 3530,
  "\u2581kodok": 3531,
  "\u2581saved": 3532,
  "\u2581talking": 3533,
  "\u2581worth": 3534,
  "\u2581Dan": 3535,
  "\u2581Jachwech": 3536,
  "\u2581although": 3537,
  "\u2581deeds": 3538,
  "\u2581lasting": 3539,
  "\u2581lokore": 3540,
  "\u2581nyiri": 3541,
  "\u2581oyiero": 3542,
  "\u2581throw": 3543,
  "\u2581treasure": 3544,
  "\u258154": 3545,
  "\u2581Waduto": 3546,
  "\u2581bor": 3547,
  "\u2581business": 3548,
  "\u2581commanded": 3549,
  "\u2581developed": 3550,
  "\u2581fell": 3551,
  "\u2581gwenge": 3552,
  "\u2581mochuno": 3553,
  "\u2581moving": 3554,
  "\u2581olok": 3555,
  "\u2581otemo": 3556,
  "\u2581pornography": 3557,
  "\u2581richowa": 3558,
  "\u2581touched": 3559,
  "\u2581wadwa": 3560,
  "\u2581wine": 3561,
  "\u2581yuto": 3562,
  "he": 3563,
  "jo": 3564,
  "\u2581GI": 3565,
  "\u2581Messianic": 3566,
  "\u2581Samaria": 3567,
  "\u2581Whe": 3568,
  "\u2581easier": 3569,
  "\u2581mwayudo": 3570,
  "\u2581ogandane": 3571,
  "\u2581okenge": 3572,
  "\u2581pattern": 3573,
  "\u2581process": 3574,
  "\u2581provision": 3575,
  "\u2581studied": 3576,
  "\u2581sunga": 3577,
  "\u2581tayowa": 3578,
  "Cha": 3579,
  "\u2581Magi": 3580,
  "\u2581Mari": 3581,
  "\u2581chano": 3582,
  "\u2581jomisonari": 3583,
  "\u2581mondiki": 3584,
  "\u2581ooyo": 3585,
  "\u2581spirituality": 3586,
  "\u2581story": 3587,
  "\u2581wadonj": 3588,
  "\u2581watemo": 3589,
  "\u2581weeks": 3590,
  "Keep": 3591,
  "Look": 3592,
  "ayi": 3593,
  "\u2581Aaron": 3594,
  "\u2581Both": 3595,
  "\u2581Jaloch": 3596,
  "\u2581Kido": 3597,
  "\u2581Mi": 3598,
  "\u2581Pentekost": 3599,
  "\u2581aside": 3600,
  "\u2581decades": 3601,
  "\u2581dirom": 3602,
  "\u2581kitiyo": 3603,
  "\u2581lies": 3604,
  "\u2581makruok": 3605,
  "\u2581maluwogi": 3606,
  "\u2581o": 3607,
  "\u2581oseng": 3608,
  "\u2581resolve": 3609,
  "\u2581tears": 3610,
  "\u2581timbewa": 3611,
  "\u2581wakawo": 3612,
  "\u2581yedhe": 3613,
  "\u25811919": 3614,
  "\u258151": 3615,
  "\u2581Bethlehem": 3616,
  "\u2581Dwaro": 3617,
  "\u2581JO": 3618,
  "\u2581Jak": 3619,
  "\u2581Nyis": 3620,
  "\u2581Pasaka": 3621,
  "\u2581Under": 3622,
  "\u2581afraid": 3623,
  "\u2581arise": 3624,
  "\u2581delivered": 3625,
  "\u2581grup": 3626,
  "\u2581heed": 3627,
  "\u2581ill": 3628,
  "\u2581kethruok": 3629,
  "\u2581mature": 3630,
  "\u2581mine": 3631,
  "\u2581osingo": 3632,
  "\u2581setting": 3633,
  "\u2581sirkande": 3634,
  "\u2581stopped": 3635,
  "\u2581thone": 3636,
  "\u2581Dhako": 3637,
  "\u2581Ireland": 3638,
  "\u2581Jerman": 3639,
  "\u2581Mago": 3640,
  "\u2581Moa": 3641,
  "\u2581SUBJECT": 3642,
  "\u2581advantage": 3643,
  "\u2581carried": 3644,
  "\u2581entered": 3645,
  "\u2581kisera": 3646,
  "\u2581mise": 3647,
  "\u2581ngano": 3648,
  "\u2581provisions": 3649,
  "\u2581reached": 3650,
  "\u2581rohone": 3651,
  "\u2581struggle": 3652,
  "\u2581treated": 3653,
  "\u2581united": 3654,
  "\u2581widow": 3655,
  "\u2581yawuot": 3656,
  "\u258122)": 3657,
  "\u258139.": 3658,
  "\u2581Him": 3659,
  "\u2581Jodongo": 3660,
  "\u2581Phil": 3661,
  "\u2581conventions": 3662,
  "\u2581details": 3663,
  "\u2581due": 3664,
  "\u2581gratitude": 3665,
  "\u2581japuonj": 3666,
  "\u2581jokwath": 3667,
  "\u2581journey": 3668,
  "\u2581mobiro": 3669,
  "\u2581observed": 3670,
  "\u2581parable": 3671,
  "\u2581providing": 3672,
  "\u2581reality": 3673,
  "\u2581road": 3674,
  "\u2581shared": 3675,
  "\u2581stick": 3676,
  "\u2581sun": 3677,
  "\u2581viewpoint": 3678,
  "What": 3679,
  "Yer": 3680,
  "\u2581Manyien": 3681,
  "\u2581Michelle": 3682,
  "\u2581Sad": 3683,
  "\u2581Sophia": 3684,
  "\u2581Take": 3685,
  "\u2581Two": 3686,
  "\u2581Wuowi": 3687,
  "\u2581allows": 3688,
  "\u2581committed": 3689,
  "\u2581gathered": 3690,
  "\u2581iwacho": 3691,
  "\u2581jood": 3692,
  "\u2581lach": 3693,
  "\u2581lwenyno": 3694,
  "\u2581noting": 3695,
  "\u2581nus": 3696,
  "\u2581occurred": 3697,
  "\u2581odwar": 3698,
  "\u2581ojiwo": 3699,
  "\u2581tang": 3700,
  "\u2581wawinj": 3701,
  "\u2581Canada": 3702,
  "\u2581Chike": 3703,
  "\u2581Kit": 3704,
  "\u2581Pentecost": 3705,
  "\u2581Pinyruodhno": 3706,
  "\u2581Up": 3707,
  "\u2581anxious": 3708,
  "\u2581appears": 3709,
  "\u2581dhahabu": 3710,
  "\u2581eager": 3711,
  "\u2581generous": 3712,
  "\u2581jonyuolne": 3713,
  "\u2581kethogi": 3714,
  "\u2581mibadhi": 3715,
  "\u2581nochueyo": 3716,
  "\u2581oonge": 3717,
  "\u2581osekonyo": 3718,
  "\u2581otenore": 3719,
  "\u2581placed": 3720,
  "\u2581pong": 3721,
  "\u2581ruling": 3722,
  "\u2581supported": 3723,
  "\u2581Chiwo": 3724,
  "\u2581Once": 3725,
  "\u2581Version": 3726,
  "\u2581handle": 3727,
  "\u2581involve": 3728,
  "\u2581listened": 3729,
  "\u2581miyi": 3730,
  "\u2581pier": 3731,
  "\u2581quoted": 3732,
  "\u2581recognized": 3733,
  "\u2581selfish": 3734,
  "\u2581simo": 3735,
  "gombo": 3736,
  "\u2581Britain": 3737,
  "\u2581Drama": 3738,
  "\u2581Harun": 3739,
  "\u2581Michael": 3740,
  "\u2581Work": 3741,
  "\u2581accomplished": 3742,
  "\u2581appeal": 3743,
  "\u2581chokruogno": 3744,
  "\u2581daughters": 3745,
  "\u2581exactly": 3746,
  "\u2581exert": 3747,
  "\u2581gods": 3748,
  "\u2581husbands": 3749,
  "\u2581inner": 3750,
  "\u2581jotelo": 3751,
  "\u2581preced": 3752,
  "\u2581tiendgi": 3753,
  "\u2581ubed": 3754,
  "\u2581views": 3755,
  "\u2581wami": 3756,
  "\u2581yawuote": 3757,
  "\u2581\"[": 3758,
  "\u258121)": 3759,
  "\u2581Awake": 3760,
  "\u2581Catholic": 3761,
  "\u2581Children": 3762,
  "\u2581Follow": 3763,
  "\u2581Geno": 3764,
  "\u2581Goliath": 3765,
  "\u2581J": 3766,
  "\u2581MADUONG": 3767,
  "\u2581Mach": 3768,
  "\u2581NW": 3769,
  "\u2581Recall": 3770,
  "\u2581appearance": 3771,
  "\u2581beneficial": 3772,
  "\u2581calling": 3773,
  "\u2581choices": 3774,
  "\u2581count": 3775,
  "\u2581dalano": 3776,
  "\u2581determination": 3777,
  "\u2581gedo": 3778,
  "\u2581maru": 3779,
  "\u2581mayom": 3780,
  "\u2581mosiko": 3781,
  "\u2581notiyogo": 3782,
  "\u2581perform": 3783,
  "\u2581recreation": 3784,
  "\u2581tender": 3785,
  "\u2581winjruokgi": 3786,
  "\u2581witnesses": 3787,
  "gotten": 3788,
  "ndalo": 3789,
  "\u25812014": 3790,
  "\u2581City": 3791,
  "\u2581Second": 3792,
  "\u2581Wechego": 3793,
  "\u2581dealing": 3794,
  "\u2581dhoudi": 3795,
  "\u2581discussion": 3796,
  "\u2581emotions": 3797,
  "\u2581feels": 3798,
  "\u2581indicates": 3799,
  "\u2581ine": 3800,
  "\u2581inheritance": 3801,
  "\u2581kill": 3802,
  "\u2581motivate": 3803,
  "\u2581orumo": 3804,
  "\u2581powers": 3805,
  "\u2581remarkable": 3806,
  "\u2581sinners": 3807,
  ">": 3808,
  "\u2581Absalom": 3809,
  "\u2581Kanaan": 3810,
  "\u2581Momiyo": 3811,
  "\u2581Parents": 3812,
  "\u2581USED": 3813,
  "\u2581belong": 3814,
  "\u2581discouraged": 3815,
  "\u2581drinking": 3816,
  "\u2581facing": 3817,
  "\u2581gikeni": 3818,
  "\u2581gone": 3819,
  "\u2581jakony": 3820,
  "\u2581kawuono": 3821,
  "\u2581lifestyle": 3822,
  "\u2581mapod": 3823,
  "\u2581oluwo": 3824,
  "\u2581organized": 3825,
  "\u2581osemiyowa": 3826,
  "\u2581rang": 3827,
  "\u2581reference": 3828,
  "\u2581search": 3829,
  "\u2581som": 3830,
  "\u2581waiting": 3831,
  "\u2581worse": 3832,
  "\u2581writing": 3833,
  "\u2581yes": 3834,
  "\u2581Christianity": 3835,
  "\u2581Gideon": 3836,
  "\u2581Passover": 3837,
  "\u2581Ruodh": 3838,
  "\u2581address": 3839,
  "\u2581appreciated": 3840,
  "\u2581await": 3841,
  "\u2581commandments": 3842,
  "\u2581doko": 3843,
  "\u2581forces": 3844,
  "\u2581gitemo": 3845,
  "\u2581iwe": 3846,
  "\u2581iyudo": 3847,
  "\u2581joloch": 3848,
  "\u2581nochweyo": 3849,
  "\u2581nyisogi": 3850,
  "\u2581okelo": 3851,
  "\u2581omigi": 3852,
  "\u2581rebellion": 3853,
  "\u2581thum": 3854,
  "\u2581violent": 3855,
  "\u2581watem": 3856,
  "\u2581wondered": 3857,
  "bed": 3858,
  "ers": 3859,
  "we": 3860,
  "\u2581Israelite": 3861,
  "\u2581Ket": 3862,
  "\u2581Latin": 3863,
  "\u2581Name": 3864,
  "\u2581Nyasachi": 3865,
  "\u2581Timbe": 3866,
  "\u2581arrangements": 3867,
  "\u2581awake": 3868,
  "\u2581declare": 3869,
  "\u2581differ": 3870,
  "\u2581fleshly": 3871,
  "\u2581mochido": 3872,
  "\u2581morowa": 3873,
  "\u2581nochiwore": 3874,
  "\u2581pinyruodh": 3875,
  "\u2581seriously": 3876,
  "\u2581waweyo": 3877,
  "\u2581August": 3878,
  "\u2581Chak": 3879,
  "\u2581Moloyo": 3880,
  "\u2581Nazareth": 3881,
  "\u2581Ni": 3882,
  "\u2581Winjruok": 3883,
  "\u2581abilities": 3884,
  "\u2581background": 3885,
  "\u2581benefited": 3886,
  "\u2581constantly": 3887,
  "\u2581descendants": 3888,
  "\u2581extend": 3889,
  "\u2581hospitality": 3890,
  "\u2581impressed": 3891,
  "\u2581isomo": 3892,
  "\u2581jowetewa": 3893,
  "\u2581madhi": 3894,
  "\u2581missionaries": 3895,
  "\u2581mudho": 3896,
  "\u2581nomiyogi": 3897,
  "\u2581occasions": 3898,
  "\u2581olo": 3899,
  "\u2581patiently": 3900,
  "\u2581performed": 3901,
  "\u2581refer": 3902,
  "\u2581reports": 3903,
  "\u2581sleep": 3904,
  "\u2581speaks": 3905,
  "\u2581telo": 3906,
  "\u2581wuond": 3907,
  "P": 3908,
  "\u25811950": 3909,
  "\u258142.": 3910,
  "\u2581Hannah": 3911,
  "\u2581Neno": 3912,
  "\u2581Oktoba": 3913,
  "\u2581ikruok": 3914,
  "\u2581joyful": 3915,
  "\u2581jumbe": 3916,
  "\u2581kuomi": 3917,
  "\u2581migeno": 3918,
  "\u2581mouth": 3919,
  "\u2581ose": 3920,
  "\u2581recalls": 3921,
  "\u2581requirements": 3922,
  "\u2581review": 3923,
  "\u2581social": 3924,
  "\u2581stake": 3925,
  "\u2581wachne": 3926,
  "\u2581ywayo": 3927,
  "weche": 3928,
  "\u2581Anna": 3929,
  "\u2581Chiegni": 3930,
  "\u2581Higa": 3931,
  "\u2581Lazaro": 3932,
  "\u2581Luwo": 3933,
  "\u2581Tho": 3934,
  "\u2581difference": 3935,
  "\u2581dwond": 3936,
  "\u2581giti": 3937,
  "\u2581governments": 3938,
  "\u2581iyie": 3939,
  "\u2581ling": 3940,
  "\u2581luw": 3941,
  "\u2581main": 3942,
  "\u2581mention": 3943,
  "\u2581mildness": 3944,
  "\u2581minister": 3945,
  "\u2581nodonjo": 3946,
  "\u2581oluoro": 3947,
  "\u2581otawa": 3948,
  "\u2581puonjora": 3949,
  "\u2581superior": 3950,
  "\u2581wheat": 3951,
  "great": 3952,
  "rb": 3953,
  "ro": 3954,
  "\u2581Am": 3955,
  "\u2581Eklesiastes": 3956,
  "\u2581Jordan": 3957,
  "\u2581Oganda": 3958,
  "\u2581adjust": 3959,
  "\u2581attempt": 3960,
  "\u2581brief": 3961,
  "\u2581career": 3962,
  "\u2581compared": 3963,
  "\u2581construction": 3964,
  "\u2581dangerous": 3965,
  "\u2581highly": 3966,
  "\u2581hore": 3967,
  "\u2581kindu": 3968,
  "\u2581lay": 3969,
  "\u2581mamit": 3970,
  "\u2581mapok": 3971,
  "\u2581nobi": 3972,
  "\u2581ojiw": 3973,
  "\u2581qualified": 3974,
  "\u2581run": 3975,
  "\u2581sanduk": 3976,
  "\u2581shepherds": 3977,
  "\u2581sought": 3978,
  "\u2581Ataro": 3979,
  "\u2581Exodus": 3980,
  "\u2581Has": 3981,
  "\u2581Internet": 3982,
  "\u2581Jon": 3983,
  "\u2581Ministry": 3984,
  "\u2581Nisan": 3985,
  "\u2581Odiechieng": 3986,
  "\u2581ariyogi": 3987,
  "\u2581assignments": 3988,
  "\u2581comforting": 3989,
  "\u2581corrupt": 3990,
  "\u2581goes": 3991,
  "\u2581hike": 3992,
  "\u2581jatelo": 3993,
  "\u2581jonabi": 3994,
  "\u2581kuor": 3995,
  "\u2581lame": 3996,
  "\u2581leaving": 3997,
  "\u2581ligangla": 3998,
  "\u2581marry": 3999,
  "\u2581miya": 4000,
  "\u2581moweyo": 4001,
  "\u2581neighbors": 4002,
  "\u2581nikare": 4003,
  "\u2581nyuolo": 4004,
  "\u2581oil": 4005,
  "\u2581osekonya": 4006,
  "\u2581peaceful": 4007,
  "\u2581suggestions": 4008,
  "\u2581thim": 4009,
  "\u2581wapuonjre": 4010,
  "\u2581Blu": 4011,
  "\u2581Ecclesiastes": 4012,
  "\u2581Never": 4013,
  "\u2581Nimar": 4014,
  "\u2581Obiro": 4015,
  "\u2581Thessalonika": 4016,
  "\u2581Zechariah": 4017,
  "\u2581carrying": 4018,
  "\u2581commission": 4019,
  "\u2581date": 4020,
  "\u2581directly": 4021,
  "\u2581dwarone": 4022,
  "\u2581meditating": 4023,
  "\u2581modhi": 4024,
  "\u2581motigo": 4025,
  "\u2581nodok": 4026,
  "\u2581omiyi": 4027,
  "\u2581onon": 4028,
  "\u2581probabl": 4029,
  "\u2581recall": 4030,
  "\u2581satisfying": 4031,
  "\u2581sea": 4032,
  "\u2581unyalo": 4033,
  "\u2581wakwayo": 4034,
  "\u2581warit": 4035,
  "\u2581wuondo": 4036,
  "There": 4037,
  "do": 4038,
  "is": 4039,
  "\u258123)": 4040,
  "\u2581Illustrate": 4041,
  "\u2581Pod": 4042,
  "\u2581Ruodhi": 4043,
  "\u2581Sea": 4044,
  "\u2581Zekaria": 4045,
  "\u2581assurance": 4046,
  "\u2581attendance": 4047,
  "\u2581buche": 4048,
  "\u2581communicate": 4049,
  "\u2581connection": 4050,
  "\u2581forms": 4051,
  "\u2581gwelo": 4052,
  "\u2581instruction": 4053,
  "\u2581jatend": 4054,
  "\u2581limit": 4055,
  "\u2581lovingly": 4056,
  "\u2581major": 4057,
  "\u2581moment": 4058,
  "\u2581nogeno": 4059,
  "\u2581okwayo": 4060,
  "\u2581oloyo": 4061,
  "\u2581paradis": 4062,
  "\u2581produced": 4063,
  "\u2581referring": 4064,
  "\u2581scripture": 4065,
  "\u2581tari": 4066,
  "\u2581timno": 4067,
  "\u2581vast": 4068,
  "\u2581waher": 4069,
  "\u2581wasumbini": 4070,
  "\u2581wuo": 4071,
  "\u2581ARTICLES": 4072,
  "\u2581Flood": 4073,
  "\u2581Ing": 4074,
  "\u2581July": 4075,
  "\u2581Nonyiso": 4076,
  "\u2581Nying": 4077,
  "\u2581Paradis": 4078,
  "\u2581Titus": 4079,
  "\u2581chiwore": 4080,
  "\u2581choko": 4081,
  "\u2581critical": 4082,
  "\u2581dwaroree": 4083,
  "\u2581extreme": 4084,
  "\u2581gidak": 4085,
  "\u2581growing": 4086,
  "\u2581lal": 4087,
  "\u2581luwogi": 4088,
  "\u2581makate": 4089,
  "\u2581nyadinwoya": 4090,
  "\u2581omiya": 4091,
  "\u2581osiko": 4092,
  "\u2581ota": 4093,
  "\u2581pleas": 4094,
  "\u2581richone": 4095,
  "\u2581secure": 4096,
  "\u2581successfully": 4097,
  "\u2581wende": 4098,
  "be": 4099,
  "\u2581Almighty": 4100,
  "\u2581Ariyo": 4101,
  "\u2581Europe": 4102,
  "\u2581Galatia": 4103,
  "\u2581Here": 4104,
  "\u2581Jas": 4105,
  "\u2581Matayo": 4106,
  "\u2581company": 4107,
  "\u2581conflict": 4108,
  "\u2581cover": 4109,
  "\u2581factors": 4110,
  "\u2581financial": 4111,
  "\u2581formed": 4112,
  "\u2581generation": 4113,
  "\u2581honni": 4114,
  "\u2581invisible": 4115,
  "\u2581kuot": 4116,
  "\u2581miwuoyoe": 4117,
  "\u2581music": 4118,
  "\u2581nonyisogi": 4119,
  "\u2581odwa": 4120,
  "\u2581olokore": 4121,
  "\u2581owach": 4122,
  "\u2581re": 4123,
  "\u2581reaction": 4124,
  "\u2581rise": 4125,
  "\u2581tax": 4126,
  "\u2581tempted": 4127,
  "ANG": 4128,
  "nigi": 4129,
  "onge": 4130,
  "ous": 4131,
  "\u2581Answer": 4132,
  "\u2581Deuteronomy": 4133,
  "\u2581Gimomiyo": 4134,
  "\u2581HOW": 4135,
  "\u2581Iparo": 4136,
  "\u2581Notice": 4137,
  "\u2581Promised": 4138,
  "\u2581Rutherford": 4139,
  "\u2581ayie": 4140,
  "\u2581chapters": 4141,
  "\u2581chief": 4142,
  "\u2581difficulties": 4143,
  "\u2581giluw": 4144,
  "\u2581giwuok": 4145,
  "\u2581global": 4146,
  "\u2581humbly": 4147,
  "\u2581jogi": 4148,
  "\u2581monjo": 4149,
  "\u2581motivated": 4150,
  "\u2581nowachone": 4151,
  "\u2581nyathine": 4152,
  "\u2581nyithindwa": 4153,
  "\u2581oneg": 4154,
  "\u2581ooro": 4155,
  "\u2581osetho": 4156,
  "\u2581publication": 4157,
  "\u2581puonjno": 4158,
  "\u2581reaching": 4159,
  "\u2581winjore": 4160,
  "Kuom": 4161,
  "nyiso": 4162,
  "\u258143": 4163,
  "\u2581Ex": 4164,
  "\u2581Got": 4165,
  "\u2581Jeftha": 4166,
  "\u2581Julai": 4167,
  "\u2581L": 4168,
  "\u2581Rieko": 4169,
  "\u2581Riwruok": 4170,
  "\u2581abandon": 4171,
  "\u2581buch": 4172,
  "\u2581deliverance": 4173,
  "\u2581eating": 4174,
  "\u2581gibi": 4175,
  "\u2581gimiyo": 4176,
  "\u2581grown": 4177,
  "\u2581impossible": 4178,
  "\u2581influenced": 4179,
  "\u2581juok": 4180,
  "\u2581military": 4181,
  "\u2581nengo": 4182,
  "\u2581nobedi": 4183,
  "\u2581odonj": 4184,
  "\u2581opuonjore": 4185,
  "\u2581osetiyo": 4186,
  "\u2581pako": 4187,
  "\u2581pointed": 4188,
  "\u2581significant": 4189,
  "\u2581tieng": 4190,
  "\u2581white": 4191,
  "iechieng": 4192,
  "nwang": 4193,
  "\u258140.": 4194,
  "\u2581Farisai": 4195,
  "\u2581Master": 4196,
  "\u2581Sometimes": 4197,
  "\u2581Ulaya": 4198,
  "\u2581acquire": 4199,
  "\u2581chango": 4200,
  "\u2581gimachielo": 4201,
  "\u2581gradually": 4202,
  "\u2581inclined": 4203,
  "\u2581josayans": 4204,
  "\u2581kidono": 4205,
  "\u2581nokor": 4206,
  "\u2581nopong": 4207,
  "\u2581outcome": 4208,
  "\u2581owetego": 4209,
  "\u2581secret": 4210,
  "\u2581sid": 4211,
  "\u2581trusted": 4212,
  "\u2581walendo": 4213,
  "\u2581walked": 4214,
  "\u2581wiwa": 4215,
  "Ngeche": 4216,
  "ion": 4217,
  "ji": 4218,
  "\u258137.": 4219,
  "\u258180": 4220,
  "\u2581Col": 4221,
  "\u2581Colossians": 4222,
  "\u2581Draw": 4223,
  "\u2581Lazarus": 4224,
  "\u2581Pile": 4225,
  "\u2581approached": 4226,
  "\u2581baby": 4227,
  "\u2581beast": 4228,
  "\u2581brotherhood": 4229,
  "\u2581chikowa": 4230,
  "\u2581choosing": 4231,
  "\u2581cost": 4232,
  "\u2581granted": 4233,
  "\u2581kot": 4234,
  "\u2581lamowa": 4235,
  "\u2581mwatimo": 4236,
  "\u2581ogandano": 4237,
  "\u2581otherwise": 4238,
  "\u2581proof": 4239,
  "\u2581replied": 4240,
  "\u2581ruler": 4241,
  "\u2581timbene": 4242,
  "\u2581ung": 4243,
  "\u2581values": 4244,
  "\u2581wamiyo": 4245,
  "\u2581wuoyoe": 4246,
  "Ang": 4247,
  "ful": 4248,
  "will": 4249,
  "\u2581Karen": 4250,
  "\u2581Kuwe": 4251,
  "\u2581Mei": 4252,
  "\u2581Naboth": 4253,
  "\u2581October": 4254,
  "\u2581Ti": 4255,
  "\u2581Wuora": 4256,
  "\u2581demonstrated": 4257,
  "\u2581dong": 4258,
  "\u2581effects": 4259,
  "\u2581gwedho": 4260,
  "\u2581jalendo": 4261,
  "\u2581korachwich": 4262,
  "\u2581mail": 4263,
  "\u2581mild": 4264,
  "\u2581misengini": 4265,
  "\u2581ndalowagi": 4266,
  "\u2581nenogi": 4267,
  "\u2581onyise": 4268,
  "\u2581otigo": 4269,
  "\u2581prepar": 4270,
  "\u2581proud": 4271,
  "\u2581purposes": 4272,
  "\u2581spouse": 4273,
  "\u2581wachonwa": 4274,
  "\u2581wadgi": 4275,
  "\u2581yalo": 4276,
  "\u25812015": 4277,
  "\u258133,": 4278,
  "\u258136.": 4279,
  "\u2581Enoch": 4280,
  "\u2581Enok": 4281,
  "\u2581Eric": 4282,
  "\u2581Jephthah": 4283,
  "\u2581Naomi": 4284,
  "\u2581Nyinge": 4285,
  "\u2581Nyiso": 4286,
  "\u2581Onyalo": 4287,
  "\u2581Sovereign": 4288,
  "\u2581Time": 4289,
  "\u2581acknowledge": 4290,
  "\u2581advance": 4291,
  "\u2581aweyo": 4292,
  "\u2581couples": 4293,
  "\u2581exists": 4294,
  "\u2581gimaber": 4295,
  "\u2581grube": 4296,
  "\u2581guided": 4297,
  "\u2581international": 4298,
  "\u2581keth": 4299,
  "\u2581literal": 4300,
  "\u2581lwete": 4301,
  "\u2581mondegi": 4302,
  "\u2581nachako": 4303,
  "\u2581nomakore": 4304,
  "\u2581obtain": 4305,
  "\u2581odewo": 4306,
  "\u2581okayo": 4307,
  "\u2581olal": 4308,
  "\u2581owadwano": 4309,
  "\u2581paradiso": 4310,
  "\u2581remains": 4311,
  "\u2581reminded": 4312,
  "\u2581stood": 4313,
  "\u2581surprise": 4314,
  "\u2581vow": 4315,
  "\u2581wild": 4316,
  "\u2581writings": 4317,
  "\u2581yorene": 4318,
  "chieng": 4319,
  "ogi": 4320,
  "ong": 4321,
  "\u258153": 4322,
  "\u2581IS": 4323,
  "\u2581Kol": 4324,
  "\u2581Mika": 4325,
  "\u2581Nehemiah": 4326,
  "\u2581adultery": 4327,
  "\u2581angry": 4328,
  "\u2581chikno": 4329,
  "\u2581compassionate": 4330,
  "\u2581conviction": 4331,
  "\u2581create": 4332,
  "\u2581cry": 4333,
  "\u2581f": 4334,
  "\u2581familiar": 4335,
  "\u2581heavy": 4336,
  "\u2581komachielo": 4337,
  "\u2581manyienno": 4338,
  "\u2581meaningful": 4339,
  "\u2581ming": 4340,
  "\u2581nochakore": 4341,
  "\u2581noluongo": 4342,
  "\u2581nyiego": 4343,
  "\u2581okoro": 4344,
  "\u2581orito": 4345,
  "\u2581otiek": 4346,
  "\u2581puonjogi": 4347,
  "\u2581resulted": 4348,
  "\u2581series": 4349,
  "\u2581sickness": 4350,
  "\u2581tigo": 4351,
  "\u2581worthy": 4352,
  "\u2581yadh": 4353,
  "Dan": 4354,
  "\u258145.": 4355,
  "\u2581Church": 4356,
  "\u2581Malaki": 4357,
  "\u2581NYASAYE": 4358,
  "\u2581Nehemia": 4359,
  "\u2581Ong": 4360,
  "\u2581September": 4361,
  "\u2581Sisera": 4362,
  "\u2581Wacho": 4363,
  "\u2581alworano": 4364,
  "\u2581authorities": 4365,
  "\u2581cha": 4366,
  "\u2581donations": 4367,
  "\u2581exercis": 4368,
  "\u2581faithfulness": 4369,
  "\u2581gichiwo": 4370,
  "\u2581ideas": 4371,
  "\u2581kethore": 4372,
  "\u2581maluor": 4373,
  "\u2581mighty": 4374,
  "\u2581nyingno": 4375,
  "\u2581ochier": 4376,
  "\u2581ochiwore": 4377,
  "\u2581odich": 4378,
  "\u2581odwoko": 4379,
  "\u2581oger": 4380,
  "\u2581opposers": 4381,
  "\u2581owil": 4382,
  "\u2581puonjgo": 4383,
  "\u2581relate": 4384,
  "\u2581repentant": 4385,
  "\u2581require": 4386,
  "\u2581research": 4387,
  "\u2581severe": 4388,
  "\u2581sit": 4389,
  "\u2581sword": 4390,
  "\u2581throne": 4391,
  "\u2581useful": 4392,
  "\u2581weak": 4393,
  "\u2581wide": 4394,
  "All": 4395,
  "ch": 4396,
  "temo": 4397,
  "wonone": 4398,
  "\u258166": 4399,
  "\u2581Barak": 4400,
  "\u2581Ephesus": 4401,
  "\u2581GOD": 4402,
  "\u2581Italy": 4403,
  "\u2581Janabi": 4404,
  "\u2581Look": 4405,
  "\u2581Obed": 4406,
  "\u2581Septemba": 4407,
  "\u2581associates": 4408,
  "\u2581behavior": 4409,
  "\u2581compare": 4410,
  "\u2581depend": 4411,
  "\u2581dream": 4412,
  "\u2581figurative": 4413,
  "\u2581healthy": 4414,
  "\u2581increasing": 4415,
  "\u2581marvelous": 4416,
  "\u2581methods": 4417,
  "\u2581miderma": 4418,
  "\u2581moseti": 4419,
  "\u2581nomulo": 4420,
  "\u2581nopuonjore": 4421,
  "\u2581noromo": 4422,
  "\u2581path": 4423,
  "\u2581physically": 4424,
  "\u2581prophetic": 4425,
  "\u2581refuse": 4426,
  "\u2581season": 4427,
  "\u2581treatment": 4428,
  "Jo": 4429,
  "as": 4430,
  "disfellowshipped": 4431,
  "p": 4432,
  "wang": 4433,
  "\u258125)": 4434,
  "\u2581Amkeni": 4435,
  "\u2581Josombwa": 4436,
  "\u2581Kinda": 4437,
  "\u2581Kisungu": 4438,
  "\u2581Mad": 4439,
  "\u2581Other": 4440,
  "\u2581Philippines": 4441,
  "\u2581Scripture": 4442,
  "\u2581Surely": 4443,
  "\u2581WECHE": 4444,
  "\u2581Yore": 4445,
  "\u2581abandoned": 4446,
  "\u2581acting": 4447,
  "\u2581asebedo": 4448,
  "\u2581camp": 4449,
  "\u2581causes": 4450,
  "\u2581environment": 4451,
  "\u2581gen": 4452,
  "\u2581gichung": 4453,
  "\u2581gikony": 4454,
  "\u2581gionge": 4455,
  "\u2581gold": 4456,
  "\u2581ihero": 4457,
  "\u2581imperfection": 4458,
  "\u2581ipar": 4459,
  "\u2581kayiem": 4460,
  "\u2581kompyuta": 4461,
  "\u2581limitations": 4462,
  "\u2581mountain": 4463,
  "\u2581ndara": 4464,
  "\u2581odakie": 4465,
  "\u2581offers": 4466,
  "\u2581ondiki": 4467,
  "\u2581pimo": 4468,
  "\u2581prize": 4469,
  "\u2581romogo": 4470,
  "\u2581safe": 4471,
  "\u2581seventh": 4472,
  "\u2581sigu": 4473,
  "\u2581songs": 4474,
  "\u2581temporary": 4475,
  "\u2581tijgi": 4476,
  "\u2581turning": 4477,
  "\u2581visiting": 4478,
  "\u258125,": 4479,
  "\u2581George": 4480,
  "\u2581German": 4481,
  "\u2581Jandik": 4482,
  "\u2581Lamb": 4483,
  "\u2581Mak": 4484,
  "\u2581Nyithindo": 4485,
  "\u2581Sanduk": 4486,
  "\u2581adjustments": 4487,
  "\u2581chiw": 4488,
  "\u2581culture": 4489,
  "\u2581de": 4490,
  "\u2581describe": 4491,
  "\u2581endured": 4492,
  "\u2581gikawo": 4493,
  "\u2581habits": 4494,
  "\u2581iko": 4495,
  "\u2581increased": 4496,
  "\u2581instructed": 4497,
  "\u2581kidi": 4498,
  "\u2581masiko": 4499,
  "\u2581modong": 4500,
  "\u2581notamore": 4501,
  "\u2581odno": 4502,
  "\u2581ool": 4503,
  "\u2581opuonjo": 4504,
  "\u2581osiepni": 4505,
  "\u2581paid": 4506,
  "\u2581potential": 4507,
  "\u2581pursuing": 4508,
  "\u2581repeatedly": 4509,
  "\u2581sacrificing": 4510,
  "\u2581sang": 4511,
  "\u2581surprised": 4512,
  "\u2581timre": 4513,
  "\u2581unable": 4514,
  "\u2581wakony": 4515,
  "\u2581waseneno": 4516,
  "amedo": 4517,
  "day": 4518,
  "gik": 4519,
  "ies": 4520,
  "nara": 4521,
  "\u2581Migawo": 4522,
  "\u2581Nondiko": 4523,
  "\u2581Yiero": 4524,
  "\u2581court": 4525,
  "\u2581dwelling": 4526,
  "\u2581excellent": 4527,
  "\u2581ibi": 4528,
  "\u2581jang": 4529,
  "\u2581kodu": 4530,
  "\u2581listeners": 4531,
  "\u2581ministeri": 4532,
  "\u2581nitiere": 4533,
  "\u2581obatise": 4534,
  "\u2581olony": 4535,
  "\u2581onya": 4536,
  "\u2581penjogi": 4537,
  "\u2581prejudice": 4538,
  "\u2581ranyis": 4539,
  "\u2581religions": 4540,
  "\u2581sigand": 4541,
  "\u2581thereafter": 4542,
  "\u2581thousand": 4543,
  "\u2581thuolono": 4544,
  "\u2581wadag": 4545,
  "AKA": 4546,
  "ought": 4547,
  "ya": 4548,
  "\u2581145": 4549,
  "\u2581Go": 4550,
  "\u2581Hanna": 4551,
  "\u2581Kony": 4552,
  "\u2581Manosingi": 4553,
  "\u2581abroad": 4554,
  "\u2581admonition": 4555,
  "\u2581concluded": 4556,
  "\u2581dress": 4557,
  "\u2581firmly": 4558,
  "\u2581gikonyo": 4559,
  "\u2581girito": 4560,
  "\u2581jamisonari": 4561,
  "\u2581kayo": 4562,
  "\u2581mose": 4563,
  "\u2581noticed": 4564,
  "\u2581ohinga": 4565,
  "\u2581osekelo": 4566,
  "\u2581reported": 4567,
  "\u2581risk": 4568,
  "\u2581strengthening": 4569,
  "\u2581stress": 4570,
  "\u2581thuolone": 4571,
  "ru": 4572,
  "\u25811914.": 4573,
  "\u2581Answered": 4574,
  "\u2581Christendom": 4575,
  "\u2581Desemba": 4576,
  "\u2581Keto": 4577,
  "\u2581Lendo": 4578,
  "\u2581Levites": 4579,
  "\u2581Mlinzi": 4580,
  "\u2581Show": 4581,
  "\u2581abundance": 4582,
  "\u2581asks": 4583,
  "\u2581belongs": 4584,
  "\u2581ended": 4585,
  "\u2581genowa": 4586,
  "\u2581hell": 4587,
  "\u2581householder": 4588,
  "\u2581illustrations": 4589,
  "\u2581inyiso": 4590,
  "\u2581kore": 4591,
  "\u2581liete": 4592,
  "\u2581model": 4593,
  "\u2581nine": 4594,
  "\u2581obeying": 4595,
  "\u2581official": 4596,
  "\u2581omiyogi": 4597,
  "\u2581orem": 4598,
  "\u2581routine": 4599,
  "\u2581sinned": 4600,
  "\u2581soldiers": 4601,
  "\u2581tamore": 4602,
  "\u2581trouble": 4603,
  "\u2581twege": 4604,
  "\u2581utegi": 4605,
  "\u2581waikore": 4606,
  "\u2581wapenjre": 4607,
  "\u2581wilderness": 4608,
  "\u2581wrongdoing": 4609,
  "How": 4610,
  "ochung": 4611,
  "\u2581Kain": 4612,
  "\u2581Man": 4613,
  "\u2581NGIMA": 4614,
  "\u2581Service": 4615,
  "\u2581advancement": 4616,
  "\u2581bugego": 4617,
  "\u2581campaign": 4618,
  "\u2581confront": 4619,
  "\u2581convey": 4620,
  "\u2581gathering": 4621,
  "\u2581gichopo": 4622,
  "\u2581hundreds": 4623,
  "\u2581intended": 4624,
  "\u2581momakore": 4625,
  "\u2581numerous": 4626,
  "\u2581nyisi": 4627,
  "\u2581nyoso": 4628,
  "\u2581okalo": 4629,
  "\u2581piem": 4630,
  "\u2581property": 4631,
  "\u2581release": 4632,
  "\u2581rendered": 4633,
  "\u2581skundno": 4634,
  "\u2581society": 4635,
  "\u2581taonde": 4636,
  "\u2581treasures": 4637,
  "\u2581village": 4638,
  "\u2581walemo": 4639,
  "\u2581wrath": 4640,
  "\u2581writer": 4641,
  "keep": 4642,
  "ment": 4643,
  "\u258132,": 4644,
  "\u25817]": 4645,
  "\u2581Agost": 4646,
  "\u2581Cain": 4647,
  "\u2581French": 4648,
  "\u2581Halls": 4649,
  "\u2581JEHOVA": 4650,
  "\u2581London": 4651,
  "\u2581Nono": 4652,
  "\u2581balanced": 4653,
  "\u2581disease": 4654,
  "\u2581exist": 4655,
  "\u2581gikogi": 4656,
  "\u2581higher": 4657,
  "\u2581itgi": 4658,
  "\u2581miwacho": 4659,
  "\u2581modhier": 4660,
  "\u2581motives": 4661,
  "\u2581noketho": 4662,
  "\u2581opuonjre": 4663,
  "\u2581properly": 4664,
  "\u2581restore": 4665,
  "\u2581solid": 4666,
  "\u2581spirits": 4667,
  "\u2581t": 4668,
  "\u2581walando": 4669,
  "\u2581wawacho": 4670,
  "Kata": 4671,
  "Yesu": 4672,
  "ary": 4673,
  "\u258156": 4674,
  "\u2581Benjamin": 4675,
  "\u2581Biro": 4676,
  "\u2581Charles": 4677,
  "\u2581Every": 4678,
  "\u2581Jairo": 4679,
  "\u2581Thessalonians": 4680,
  "\u2581Tito": 4681,
  "\u2581ZAB": 4682,
  "\u2581accord": 4683,
  "\u2581aid": 4684,
  "\u2581apart": 4685,
  "\u2581attitudes": 4686,
  "\u2581bedoga": 4687,
  "\u2581boldness": 4688,
  "\u2581chiwonwa": 4689,
  "\u2581dhoot": 4690,
  "\u2581expand": 4691,
  "\u2581finding": 4692,
  "\u2581gipuonjore": 4693,
  "\u2581giwuoyo": 4694,
  "\u2581glorious": 4695,
  "\u2581hatred": 4696,
  "\u2581kwano": 4697,
  "\u2581laktar": 4698,
  "\u2581lek": 4699,
  "\u2581lowly": 4700,
  "\u2581maturity": 4701,
  "\u2581mier": 4702,
  "\u2581miracles": 4703,
  "\u2581noloso": 4704,
  "\u2581nondik": 4705,
  "\u2581notim": 4706,
  "\u2581nyingi": 4707,
  "\u2581okethore": 4708,
  "\u2581ores": 4709,
  "\u2581osiepena": 4710,
  "\u2581osiepne": 4711,
  "\u2581pinygi": 4712,
  "\u2581relations": 4713,
  "\u2581riyo": 4714,
  "\u2581sad": 4715,
  "\u2581winy": 4716,
  "K": 4717,
  "NYALO": 4718,
  "ko": 4719,
  "paro": 4720,
  "\u2581Baal": 4721,
  "\u2581December": 4722,
  "\u2581Gasedn": 4723,
  "\u2581Persia": 4724,
  "\u2581Pinyruodhe": 4725,
  "\u2581accepting": 4726,
  "\u2581bath": 4727,
  "\u2581drawing": 4728,
  "\u2581josomo": 4729,
  "\u2581kowuoyo": 4730,
  "\u2581mates": 4731,
  "\u2581matiende": 4732,
  "\u2581merciful": 4733,
  "\u2581midekre": 4734,
  "\u2581modich": 4735,
  "\u2581mokendore": 4736,
  "\u2581ojwang": 4737,
  "\u2581onenre": 4738,
  "\u2581plans": 4739,
  "\u2581poured": 4740,
  "\u2581rech": 4741,
  "\u2581released": 4742,
  "\u2581resources": 4743,
  "\u2581rightly": 4744,
  "\u2581tero": 4745,
  "\u2581timne": 4746,
  "\u2581visits": 4747,
  "\u2581wamakore": 4748,
  "\u2581wealth": 4749,
  "\u2581weigh": 4750,
  "\u2581writers": 4751,
  "reuru": 4752,
  "\u258161": 4753,
  "\u2581Anyalo": 4754,
  "\u2581Chenro": 4755,
  "\u2581Corinth": 4756,
  "\u2581Fili": 4757,
  "\u2581JEHOVAH": 4758,
  "\u2581Januar": 4759,
  "\u2581Komiti": 4760,
  "\u2581Lo": 4761,
  "\u2581Mich": 4762,
  "\u2581Parie": 4763,
  "\u2581Pharisees": 4764,
  "\u2581Ru": 4765,
  "\u2581Teko": 4766,
  "\u2581Winjo": 4767,
  "\u2581bolore": 4768,
  "\u2581cared": 4769,
  "\u2581finish": 4770,
  "\u2581fitting": 4771,
  "\u2581friendships": 4772,
  "\u2581inhabitants": 4773,
  "\u2581j": 4774,
  "\u2581jochan": 4775,
  "\u2581kuma": 4776,
  "\u2581maintaining": 4777,
  "\u2581majority": 4778,
  "\u2581matuwo": 4779,
  "\u2581modhuro": 4780,
  "\u2581mountains": 4781,
  "\u2581nokonyogi": 4782,
  "\u2581nyocha": 4783,
  "\u2581quick": 4784,
  "\u2581surround": 4785,
  "\u2581ut": 4786,
  "\u2581waonge": 4787,
  "\u2581wasebedo": 4788,
  "\u2581win": 4789,
  "D": 4790,
  "Isaiah": 4791,
  "iny": 4792,
  "tim": 4793,
  "\u258115]": 4794,
  "\u258124)": 4795,
  "\u258128)": 4796,
  "\u2581Gospels": 4797,
  "\u2581Jun": 4798,
  "\u2581March": 4799,
  "\u2581Prayer": 4800,
  "\u2581alcohol": 4801,
  "\u2581assembly": 4802,
  "\u2581blind": 4803,
  "\u2581bur": 4804,
  "\u2581buy": 4805,
  "\u2581chiega": 4806,
  "\u2581chwora": 4807,
  "\u2581commit": 4808,
  "\u2581copy": 4809,
  "\u2581cruel": 4810,
  "\u2581discovered": 4811,
  "\u2581happens": 4812,
  "\u2581inherited": 4813,
  "\u2581joneno": 4814,
  "\u2581jonyuolni": 4815,
  "\u2581jowinjo": 4816,
  "\u2581koko": 4817,
  "\u2581moluoro": 4818,
  "\u2581monyalo": 4819,
  "\u2581noduogo": 4820,
  "\u2581ochan": 4821,
  "\u2581pa": 4822,
  "\u2581perfection": 4823,
  "\u2581plan": 4824,
  "\u2581reasoning": 4825,
  "\u2581remove": 4826,
  "\u2581rewarded": 4827,
  "\u2581singonwa": 4828,
  "\u2581stone": 4829,
  "\u2581straight": 4830,
  "\u2581tayogi": 4831,
  "\u2581wedegi": 4832,
  "\u2581zealously": 4833,
  "For": 4834,
  "it": 4835,
  "\u2581Cameron": 4836,
  "\u2581Day": 4837,
  "\u2581Earth": 4838,
  "\u2581Gombo": 4839,
  "\u2581Kanyo": 4840,
  "\u2581Konyo": 4841,
  "\u2581Nam": 4842,
  "\u2581Notimo": 4843,
  "\u2581Nyarombo": 4844,
  "\u2581Sodom": 4845,
  "\u2581YA": 4846,
  "\u2581animal": 4847,
  "\u2581arranged": 4848,
  "\u2581calm": 4849,
  "\u2581defend": 4850,
  "\u2581dipo": 4851,
  "\u2581displayed": 4852,
  "\u2581entrusted": 4853,
  "\u2581girit": 4854,
  "\u2581gisebedo": 4855,
  "\u2581inhabited": 4856,
  "\u2581inyal": 4857,
  "\u2581mabedoe": 4858,
  "\u2581miche": 4859,
  "\u2581modwaro": 4860,
  "\u2581moves": 4861,
  "\u2581nyasaye": 4862,
  "\u2581ogoyo": 4863,
  "\u2581ohere": 4864,
  "\u2581puonjori": 4865,
  "\u2581recently": 4866,
  "\u2581represented": 4867,
  "\u2581root": 4868,
  "\u2581scholars": 4869,
  "\u2581slavery": 4870,
  "\u2581task": 4871,
  "\u2581tendency": 4872,
  "\u2581ungodly": 4873,
  "\u2581wars": 4874,
  "\u2581wendo": 4875,
  "\u2581wipe": 4876,
  "ING": 4877,
  "adne": 4878,
  "te": 4879,
  "\u25812,000": 4880,
  "\u2581Biblical": 4881,
  "\u2581Book": 4882,
  "\u2581Close": 4883,
  "\u2581GOCHONI": 4884,
  "\u2581January": 4885,
  "\u2581Micah": 4886,
  "\u2581NG": 4887,
  "\u2581asaya": 4888,
  "\u2581audience": 4889,
  "\u2581awe": 4890,
  "\u2581believing": 4891,
  "\u2581darkness": 4892,
  "\u2581dignity": 4893,
  "\u2581ears": 4894,
  "\u2581edition": 4895,
  "\u2581fearing": 4896,
  "\u2581features": 4897,
  "\u2581gimedo": 4898,
  "\u2581joodi": 4899,
  "\u2581kiwuoyo": 4900,
  "\u2581makamano": 4901,
  "\u2581medical": 4902,
  "\u2581molok": 4903,
  "\u2581ngerono": 4904,
  "\u2581nyar": 4905,
  "\u2581ochik": 4906,
  "\u2581okwong": 4907,
  "\u2581osekalo": 4908,
  "\u2581preserve": 4909,
  "\u2581rules": 4910,
  "\u2581teenager": 4911,
  "\u2581thuol": 4912,
  "\u2581trip": 4913,
  "\u2581tung": 4914,
  "\u2581unbeliev": 4915,
  "\u2581wachung": 4916,
  "\u2581wawuo": 4917,
  "\u2581welcome": 4918,
  "Onge": 4919,
  "They": 4920,
  "ation": 4921,
  "drew": 4922,
  "with": 4923,
  "\u258127)": 4924,
  "\u2581American": 4925,
  "\u2581Ar": 4926,
  "\u2581Box": 4927,
  "\u2581Buge": 4928,
  "\u2581Ei": 4929,
  "\u2581Piche": 4930,
  "\u2581abundant": 4931,
  "\u2581affairs": 4932,
  "\u2581air": 4933,
  "\u2581alworawa": 4934,
  "\u2581divided": 4935,
  "\u2581exciting": 4936,
  "\u2581firstborn": 4937,
  "\u2581fit": 4938,
  "\u2581glad": 4939,
  "\u2581governing": 4940,
  "\u2581holding": 4941,
  "\u2581igi": 4942,
  "\u2581jiwogi": 4943,
  "\u2581lochne": 4944,
  "\u2581modest": 4945,
  "\u2581mofuwo": 4946,
  "\u2581notes": 4947,
  "\u2581okonyowa": 4948,
  "\u2581osechako": 4949,
  "\u2581readily": 4950,
  "\u2581riwruoge": 4951,
  "\u2581scholar": 4952,
  "\u2581slow": 4953,
  "\u2581store": 4954,
  "\u2581thuolowa": 4955,
  "\u2581touch": 4956,
  "\u2581unclean": 4957,
  "\u2581universal": 4958,
  "\u2581wedding": 4959,
  "dditional": 4960,
  "geno": 4961,
  "other": 4962,
  "our": 4963,
  "\u2581104": 4964,
  "\u2581200": 4965,
  "\u2581Kaw": 4966,
  "\u2581Machon": 4967,
  "\u2581Makare": 4968,
  "\u2581achune": 4969,
  "\u2581aja": 4970,
  "\u2581belief": 4971,
  "\u2581burden": 4972,
  "\u2581cham": 4973,
  "\u2581clothing": 4974,
  "\u2581entitled": 4975,
  "\u2581imed": 4976,
  "\u2581intense": 4977,
  "\u2581jonyuolwa": 4978,
  "\u2581marachno": 4979,
  "\u2581marfuk": 4980,
  "\u2581midwaro": 4981,
  "\u2581mosmos": 4982,
  "\u2581mowacho": 4983,
  "\u2581noluor": 4984,
  "\u2581okwongo": 4985,
  "\u2581olalo": 4986,
  "\u2581osomo": 4987,
  "\u2581painful": 4988,
  "\u2581possessions": 4989,
  "\u2581qualify": 4990,
  "\u2581resolved": 4991,
  "\u2581ritowa": 4992,
  "\u2581sentence": 4993,
  "\u2581tests": 4994,
  "\u2581upbuilding": 4995,
  "\u2581waters": 4996,
  "\u2581yawo": 4997,
  "Ruoth": 4998,
  "Sama": 4999,
  "dak": 5000,
  "ern": 5001,
  "for": 5002,
  "ith": 5003,
  "neno": 5004,
  "\u2581300": 5005,
  "\u2581Brian": 5006,
  "\u2581Eventually": 5007,
  "\u2581Jachuech": 5008,
  "\u2581Jaduong": 5009,
  "\u2581Samantha": 5010,
  "\u2581Tije": 5011,
  "\u2581WE": 5012,
  "\u2581[\"": 5013,
  "\u2581aming": 5014,
  "\u2581atemo": 5015,
  "\u2581bugni": 5016,
  "\u2581dwaher": 5017,
  "\u2581ikawo": 5018,
  "\u2581list": 5019,
  "\u2581manade": 5020,
  "\u2581mia": 5021,
  "\u2581michno": 5022,
  "\u2581misonari": 5023,
  "\u2581mond": 5024,
  "\u2581nyalre": 5025,
  "\u2581oler": 5026,
  "\u2581oluong": 5027,
  "\u2581pressures": 5028,
  "\u2581quit": 5029,
  "\u2581reign": 5030,
  "\u2581restored": 5031,
  "\u2581rieny": 5032,
  "\u2581royal": 5033,
  "\u2581sinema": 5034,
  "\u2581terms": 5035,
  "\u2581tribe": 5036,
  "\u2581understands": 5037,
  "\u2581wayier": 5038,
  "\u2581weeds": 5039,
  "M": 5040,
  "le": 5041,
  "\u258140,": 5042,
  "\u258142": 5043,
  "\u2581DWOKO": 5044,
  "\u2581Me": 5045,
  "\u2581PENJO": 5046,
  "\u2581Paradiso": 5047,
  "\u2581Peace": 5048,
  "\u2581Pray": 5049,
  "\u2581Testament": 5050,
  "\u2581adi": 5051,
  "\u2581brochure": 5052,
  "\u2581current": 5053,
  "\u2581damage": 5054,
  "\u2581diek": 5055,
  "\u2581disaster": 5056,
  "\u2581district": 5057,
  "\u2581duoko": 5058,
  "\u2581dwell": 5059,
  "\u2581eliminate": 5060,
  "\u2581fedha": 5061,
  "\u2581giikore": 5062,
  "\u2581gikwayo": 5063,
  "\u2581giwe": 5064,
  "\u2581gokinyi": 5065,
  "\u2581grain": 5066,
  "\u2581hate": 5067,
  "\u2581identified": 5068,
  "\u2581iket": 5069,
  "\u2581mamero": 5070,
  "\u2581miss": 5071,
  "\u2581mistake": 5072,
  "\u2581mu": 5073,
  "\u2581noringo": 5074,
  "\u2581nosieko": 5075,
  "\u2581ogeng": 5076,
  "\u2581osewacho": 5077,
  "\u2581region": 5078,
  "\u2581relationships": 5079,
  "\u2581ruodhe": 5080,
  "\u2581sando": 5081,
  "\u2581uphold": 5082,
  "\u2581urgency": 5083,
  "\u2581uwegi": 5084,
  "\u2581wadwar": 5085,
  "\u2581wafwenyo": 5086,
  "\u2581wasiki": 5087,
  "cha": 5088,
  "pp": 5089,
  "\u258190": 5090,
  "\u2581Galatians": 5091,
  "\u2581Herod": 5092,
  "\u2581Jasomo": 5093,
  "\u2581Lot": 5094,
  "\u2581Luw": 5095,
  "\u2581PINY": 5096,
  "\u2581Shortly": 5097,
  "\u2581Wamor": 5098,
  "\u2581alert": 5099,
  "\u2581andika": 5100,
  "\u2581asomo": 5101,
  "\u2581devoted": 5102,
  "\u2581gidonjo": 5103,
  "\u2581goodness": 5104,
  "\u2581heal": 5105,
  "\u2581herself": 5106,
  "\u2581ibedo": 5107,
  "\u2581imedo": 5108,
  "\u2581kendwa": 5109,
  "\u2581lalo": 5110,
  "\u2581meditation": 5111,
  "\u2581noketonwa": 5112,
  "\u2581nonyisa": 5113,
  "\u2581obolore": 5114,
  "\u2581obvious": 5115,
  "\u2581ofise": 5116,
  "\u2581okel": 5117,
  "\u2581osechopo": 5118,
  "\u2581osefwenyo": 5119,
  "\u2581partner": 5120,
  "\u2581private": 5121,
  "\u2581publisher": 5122,
  "\u2581reliable": 5123,
  "\u2581riekni": 5124,
  "\u2581sake": 5125,
  "\u2581singing": 5126,
  "\u2581song": 5127,
  "\u2581wabare": 5128,
  "\u2581walo": 5129,
  "\u2581yawuowi": 5130,
  "Nikech": 5131,
  "ermon": 5132,
  "penjori": 5133,
  "\u258164": 5134,
  "\u2581Chron": 5135,
  "\u2581Herode": 5136,
  "\u2581Kindegi": 5137,
  "\u2581Malaike": 5138,
  "\u2581Person": 5139,
  "\u2581across": 5140,
  "\u2581bayo": 5141,
  "\u2581bodies": 5142,
  "\u2581chalre": 5143,
  "\u2581dangers": 5144,
  "\u2581dar": 5145,
  "\u2581employment": 5146,
  "\u2581error": 5147,
  "\u2581gidag": 5148,
  "\u2581ichak": 5149,
  "\u2581initiative": 5150,
  "\u2581joratiro": 5151,
  "\u2581kano": 5152,
  "\u2581kenda": 5153,
  "\u2581lying": 5154,
  "\u2581makayo": 5155,
  "\u2581mamulo": 5156,
  "\u2581nyaminwano": 5157,
  "\u2581nyithindu": 5158,
  "\u2581openjo": 5159,
  "\u2581orwak": 5160,
  "\u2581otegno": 5161,
  "\u2581passage": 5162,
  "\u2581persecuted": 5163,
  "\u2581phone": 5164,
  "\u2581pre": 5165,
  "\u2581promotes": 5166,
  "\u2581protected": 5167,
  "\u2581remb": 5168,
  "\u2581riekone": 5169,
  "\u2581rights": 5170,
  "\u2581suddenly": 5171,
  "\u2581symbolic": 5172,
  "\u2581thothgi": 5173,
  "\u2581threatened": 5174,
  "\u2581tichne": 5175,
  "\u2581tijni": 5176,
  "\u2581utim": 5177,
  "\u2581wetena": 5178,
  "\u2581writes": 5179,
  "Ma": 5180,
  "U": 5181,
  "ar": 5182,
  "chiegni": 5183,
  "ia": 5184,
  "luwo": 5185,
  "\u25812000": 5186,
  "\u258197": 5187,
  "\u2581Ana": 5188,
  "\u2581Committee": 5189,
  "\u2581Elders": 5190,
  "\u2581II": 5191,
  "\u2581June": 5192,
  "\u2581Luor": 5193,
  "\u2581Penj": 5194,
  "\u2581Pilato": 5195,
  "\u2581Poland": 5196,
  "\u2581Rebeka": 5197,
  "\u2581Somo": 5198,
  "\u2581applies": 5199,
  "\u2581asleep": 5200,
  "\u2581attain": 5201,
  "\u2581broke": 5202,
  "\u2581detail": 5203,
  "\u2581earnest": 5204,
  "\u2581enjoying": 5205,
  "\u2581gasedni": 5206,
  "\u2581heads": 5207,
  "\u2581imitat": 5208,
  "\u2581imiyo": 5209,
  "\u2581jopiny": 5210,
  "\u2581kitepe": 5211,
  "\u2581likened": 5212,
  "\u2581lovers": 5213,
  "\u2581magazines": 5214,
  "\u2581malworo": 5215,
  "\u2581marked": 5216,
  "\u2581mopondo": 5217,
  "\u2581noa": 5218,
  "\u2581nyare": 5219,
  "\u2581oland": 5220,
  "\u2581pagan": 5221,
  "\u2581pictures": 5222,
  "\u2581possess": 5223,
  "\u2581represents": 5224,
  "\u2581resruok": 5225,
  "\u2581riwore": 5226,
  "\u2581serpent": 5227,
  "\u2581stayed": 5228,
  "\u2581union": 5229,
  "\u2581variety": 5230,
  "\u2581wichkuot": 5231,
  "\u2581winj": 5232,
  "\u2581wisely": 5233,
  "\u2581yoke": 5234,
  "Lawi": 5235,
  "his": 5236,
  "ll": 5237,
  "\u25811918": 5238,
  "\u2581America": 5239,
  "\u2581Come": 5240,
  "\u2581DO": 5241,
  "\u2581Gigo": 5242,
  "\u2581Happy": 5243,
  "\u2581Jude": 5244,
  "\u2581Matin": 5245,
  "\u2581Simon": 5246,
  "\u2581Wuoyo": 5247,
  "\u2581Yudo": 5248,
  "\u2581agombo": 5249,
  "\u2581altar": 5250,
  "\u2581assume": 5251,
  "\u2581causing": 5252,
  "\u2581claimed": 5253,
  "\u2581content": 5254,
  "\u2581dakika": 5255,
  "\u2581depth": 5256,
  "\u2581expects": 5257,
  "\u2581girwako": 5258,
  "\u2581gol": 5259,
  "\u2581goyiem": 5260,
  "\u2581habit": 5261,
  "\u2581iluor": 5262,
  "\u2581inherit": 5263,
  "\u2581jowetene": 5264,
  "\u2581kelone": 5265,
  "\u2581kendi": 5266,
  "\u2581klas": 5267,
  "\u2581luong": 5268,
  "\u2581midst": 5269,
  "\u2581miraculous": 5270,
  "\u2581miraculously": 5271,
  "\u2581mosetimore": 5272,
  "\u2581nege": 5273,
  "\u2581oher": 5274,
  "\u2581osiki": 5275,
  "\u2581osiptal": 5276,
  "\u2581regret": 5277,
  "\u2581removed": 5278,
  "\u2581render": 5279,
  "\u2581repentance": 5280,
  "\u2581riw": 5281,
  "\u2581ruin": 5282,
  "\u2581stars": 5283,
  "\u2581struck": 5284,
  "\u2581sustain": 5285,
  "\u2581traits": 5286,
  "\u2581trusting": 5287,
  "\u2581upright": 5288,
  "\u2581utimo": 5289,
  "\u2581voluntary": 5290,
  "\u2581wuoyi": 5291,
  "TRY": 5292,
  "ver": 5293,
  "\u25811,000": 5294,
  "\u25812007": 5295,
  "\u2581Afrika": 5296,
  "\u2581Chir": 5297,
  "\u2581Gog": 5298,
  "\u2581Imitate": 5299,
  "\u2581Kama": 5300,
  "\u2581LU": 5301,
  "\u2581William": 5302,
  "\u2581apparently": 5303,
  "\u2581chielo": 5304,
  "\u2581developing": 5305,
  "\u2581dhoge": 5306,
  "\u2581explanation": 5307,
  "\u2581extended": 5308,
  "\u2581grand": 5309,
  "\u2581indefinite": 5310,
  "\u2581jochiwo": 5311,
  "\u2581judged": 5312,
  "\u2581kotimo": 5313,
  "\u2581milambo": 5314,
  "\u2581nearby": 5315,
  "\u2581nenre": 5316,
  "\u2581officials": 5317,
  "\u2581onyisa": 5318,
  "\u2581owetegi": 5319,
  "\u2581puothe": 5320,
  "\u2581site": 5321,
  "\u2581sold": 5322,
  "\u2581strangers": 5323,
  "\u2581talks": 5324,
  "\u2581tribes": 5325,
  "\u2581tuo": 5326,
  "\u2581victory": 5327,
  "\u2581wachiwo": 5328,
  "\u2581wachopo": 5329,
  "\u2581walem": 5330,
  "\u2581warfare": 5331,
  "\u2581winje": 5332,
  "As": 5333,
  "EI": 5334,
  "Un": 5335,
  "ish": 5336,
  "otiyo": 5337,
  "\u25816]": 5338,
  "\u2581Duo": 5339,
  "\u2581Elihu": 5340,
  "\u2581Granted": 5341,
  "\u2581India": 5342,
  "\u2581Ngero": 5343,
  "\u2581Out": 5344,
  "\u2581Y": 5345,
  "\u2581achielno": 5346,
  "\u2581agreed": 5347,
  "\u2581awacha": 5348,
  "\u2581balance": 5349,
  "\u2581begins": 5350,
  "\u2581belongings": 5351,
  "\u2581chwanyo": 5352,
  "\u2581companion": 5353,
  "\u2581conducted": 5354,
  "\u2581deepen": 5355,
  "\u2581dew": 5356,
  "\u2581differences": 5357,
  "\u2581distance": 5358,
  "\u2581emphasize": 5359,
  "\u2581fast": 5360,
  "\u2581finished": 5361,
  "\u2581foundation": 5362,
  "\u2581gained": 5363,
  "\u2581generosity": 5364,
  "\u2581githo": 5365,
  "\u2581glorify": 5366,
  "\u2581imor": 5367,
  "\u2581injili": 5368,
  "\u2581itwa": 5369,
  "\u2581jaricho": 5370,
  "\u2581muya": 5371,
  "\u2581nochuno": 5372,
  "\u2581nosiko": 5373,
  "\u2581nyathino": 5374,
  "\u2581obatisa": 5375,
  "\u2581oduogo": 5376,
  "\u2581oherore": 5377,
  "\u2581passing": 5378,
  "\u2581ranyisine": 5379,
  "\u2581residents": 5380,
  "\u2581ritogi": 5381,
  "\u2581schedule": 5382,
  "\u2581shed": 5383,
  "\u2581standard": 5384,
  "\u2581timonwa": 5385,
  "\u2581wachak": 5386,
  "\u2581wakonyo": 5387,
  "\u2581weaknesses": 5388,
  "\u2581welfare": 5389,
  "\u2581ya": 5390,
  "07": 5391,
  "oganda": 5392,
  "\u2581139": 5393,
  "\u258183": 5394,
  "\u258186": 5395,
  "\u2581Anthony": 5396,
  "\u2581Eli": 5397,
  "\u2581FOR": 5398,
  "\u2581Habakkuk": 5399,
  "\u2581LIFE": 5400,
  "\u2581Novemba": 5401,
  "\u2581QUESTIONS": 5402,
  "\u2581Reflect": 5403,
  "\u2581Thomas": 5404,
  "\u2581Twa": 5405,
  "\u2581absorb": 5406,
  "\u2581addressed": 5407,
  "\u2581akwayo": 5408,
  "\u2581anjawo": 5409,
  "\u2581anxieties": 5410,
  "\u2581armies": 5411,
  "\u2581believer": 5412,
  "\u2581da": 5413,
  "\u2581degree": 5414,
  "\u2581gather": 5415,
  "\u2581gole": 5416,
  "\u2581hulo": 5417,
  "\u2581kapod": 5418,
  "\u2581kwero": 5419,
  "\u2581lam": 5420,
  "\u2581losing": 5421,
  "\u2581migawone": 5422,
  "\u2581mobolore": 5423,
  "\u2581moyie": 5424,
  "\u2581nengogi": 5425,
  "\u2581newly": 5426,
  "\u2581nochano": 5427,
  "\u2581nyagruok": 5428,
  "\u2581objective": 5429,
  "\u2581olero": 5430,
  "\u2581peaceable": 5431,
  "\u2581permanent": 5432,
  "\u2581priority": 5433,
  "\u2581rescue": 5434,
  "\u2581rohono": 5435,
  "\u2581sano": 5436,
  "\u2581sinani": 5437,
  "\u2581spending": 5438,
  "\u2581subjection": 5439,
  "Mano": 5440,
  "lamo": 5441,
  "\u2581500": 5442,
  "\u2581Amor": 5443,
  "\u2581Ekl": 5444,
  "\u2581Haran": 5445,
  "\u2581Jesse": 5446,
  "\u2581Jezebel": 5447,
  "\u2581Jokristogo": 5448,
  "\u2581Kanada": 5449,
  "\u2581Machiegni": 5450,
  "\u2581Spanish": 5451,
  "\u2581Thess": 5452,
  "\u2581Use": 5453,
  "\u2581bride": 5454,
  "\u2581chikego": 5455,
  "\u2581dende": 5456,
  "\u2581emotionally": 5457,
  "\u2581enduring": 5458,
  "\u2581finds": 5459,
  "\u2581gidok": 5460,
  "\u2581gigeno": 5461,
  "\u2581hardships": 5462,
  "\u2581harmful": 5463,
  "\u2581hawi": 5464,
  "\u2581influences": 5465,
  "\u2581innocent": 5466,
  "\u2581kingdoms": 5467,
  "\u2581meli": 5468,
  "\u2581miwuoyo": 5469,
  "\u2581nyadiriyo": 5470,
  "\u2581obedi": 5471,
  "\u2581olembe": 5472,
  "\u2581oor": 5473,
  "\u2581overwhelmed": 5474,
  "\u2581project": 5475,
  "\u2581prominent": 5476,
  "\u2581tipo": 5477,
  "\u2581vidio": 5478,
  "\u2581wedewa": 5479,
  "\u2581weg": 5480,
  "\u2581wind": 5481,
  "Ji": 5482,
  "Wach": 5483,
  "joma": 5484,
  "rimarily": 5485,
  "\u2581Ahinya": 5486,
  "\u2581Chandruok": 5487,
  "\u2581China": 5488,
  "\u2581Esther": 5489,
  "\u2581Jachwechwa": 5490,
  "\u2581Nations": 5491,
  "\u2581PS": 5492,
  "\u2581Rehoboam": 5493,
  "\u2581Ted": 5494,
  "\u2581accompany": 5495,
  "\u2581acknowledged": 5496,
  "\u2581add": 5497,
  "\u2581cooperate": 5498,
  "\u2581dhogi": 5499,
  "\u2581dier": 5500,
  "\u2581except": 5501,
  "\u2581fundamental": 5502,
  "\u2581ger": 5503,
  "\u2581identity": 5504,
  "\u2581involv": 5505,
  "\u2581itemo": 5506,
  "\u2581jachiwo": 5507,
  "\u2581kodwaro": 5508,
  "\u2581leader": 5509,
  "\u2581lwasi": 5510,
  "\u2581maintained": 5511,
  "\u2581nomiya": 5512,
  "\u2581oluor": 5513,
  "\u2581onyisi": 5514,
  "\u2581otem": 5515,
  "\u2581peer": 5516,
  "\u2581persons": 5517,
  "\u2581pinywani": 5518,
  "\u2581priorities": 5519,
  "\u2581riembo": 5520,
  "\u2581skills": 5521,
  "\u2581souls": 5522,
  "\u2581stronger": 5523,
  "\u2581tamruok": 5524,
  "\u2581total": 5525,
  "\u2581urge": 5526,
  "\u2581websaitwa": 5527,
  "\u2581wuondruok": 5528,
  "\u2581yud": 5529,
  "ine": 5530,
  "not": 5531,
  "tn": 5532,
  "\u2581EN": 5533,
  "\u2581Gabriel": 5534,
  "\u2581Giduto": 5535,
  "\u2581Gimoro": 5536,
  "\u2581ISSUE": 5537,
  "\u2581Jarit": 5538,
  "\u2581Jodong": 5539,
  "\u2581Things": 5540,
  "\u2581Tijwa": 5541,
  "\u2581Way": 5542,
  "\u2581approaching": 5543,
  "\u2581approved": 5544,
  "\u2581ayud": 5545,
  "\u2581comfortable": 5546,
  "\u2581commands": 5547,
  "\u2581context": 5548,
  "\u2581dhoga": 5549,
  "\u2581eagerly": 5550,
  "\u2581economic": 5551,
  "\u2581ga": 5552,
  "\u2581gir": 5553,
  "\u2581gitiyogo": 5554,
  "\u2581goats": 5555,
  "\u2581grave": 5556,
  "\u2581highlights": 5557,
  "\u2581ifwenyo": 5558,
  "\u2581images": 5559,
  "\u2581impact": 5560,
  "\u2581instruct": 5561,
  "\u2581isolated": 5562,
  "\u2581lett": 5563,
  "\u2581load": 5564,
  "\u2581machiwo": 5565,
  "\u2581omak": 5566,
  "\u2581osetimore": 5567,
  "\u2581oyier": 5568,
  "\u2581preserved": 5569,
  "\u2581pursuits": 5570,
  "\u2581raising": 5571,
  "\u2581reminders": 5572,
  "\u2581talanta": 5573,
  "\u2581talents": 5574,
  "\u2581thanks": 5575,
  "\u2581thurgi": 5576,
  "\u2581unrighteous": 5577,
  "\u2581wakwa": 5578,
  "\u2581warnings": 5579,
  "\u2581watching": 5580,
  "\u2581wede": 5581,
  "\u2581yom": 5582,
  "ED": 5583,
  "En": 5584,
  "No": 5585,
  "owa": 5586,
  "wabiro": 5587,
  "ye": 5588,
  "\u2581120": 5589,
  "\u2581Again": 5590,
  "\u2581Alex": 5591,
  "\u2581Moab": 5592,
  "\u2581Mon": 5593,
  "\u2581Myanmar": 5594,
  "\u2581Re": 5595,
  "\u2581Richo": 5596,
  "\u2581Ruler": 5597,
  "\u2581Suria": 5598,
  "\u2581Trinity": 5599,
  "\u2581Ur": 5600,
  "\u2581achaya": 5601,
  "\u2581adekgo": 5602,
  "\u2581assemblies": 5603,
  "\u2581bedonwa": 5604,
  "\u2581comforted": 5605,
  "\u2581commandment": 5606,
  "\u2581consult": 5607,
  "\u2581conversations": 5608,
  "\u2581copies": 5609,
  "\u2581diligent": 5610,
  "\u2581discussing": 5611,
  "\u2581distant": 5612,
  "\u2581doctrine": 5613,
  "\u2581empower": 5614,
  "\u2581fish": 5615,
  "\u2581headship": 5616,
  "\u2581initial": 5617,
  "\u2581jondiko": 5618,
  "\u2581koparo": 5619,
  "\u2581loyally": 5620,
  "\u2581masawa": 5621,
  "\u2581moketo": 5622,
  "\u2581ndege": 5623,
  "\u2581odhiambo": 5624,
  "\u2581odog": 5625,
  "\u2581oringo": 5626,
  "\u2581oseti": 5627,
  "\u2581played": 5628,
  "\u2581popular": 5629,
  "\u2581possession": 5630,
  "\u2581previously": 5631,
  "\u2581rangi": 5632,
  "\u2581reply": 5633,
  "\u2581resurrect": 5634,
  "\u2581ring": 5635,
  "\u2581rock": 5636,
  "\u2581scene": 5637,
  "\u2581street": 5638,
  "\u2581supply": 5639,
  "\u2581tenge": 5640,
  "\u2581valid": 5641,
  "\u2581wahere": 5642,
  "\u2581wall": 5643,
  "\u2581worry": 5644,
  "\u2581yoregi": 5645,
  "ROM": 5646,
  "ity": 5647,
  "luongore": 5648,
  "man": 5649,
  "\u2581Barnaba": 5650,
  "\u2581Chutho": 5651,
  "\u2581Egyptian": 5652,
  "\u2581Ethiopia": 5653,
  "\u2581Galili": 5654,
  "\u2581Jeroboam": 5655,
  "\u2581Lut": 5656,
  "\u2581Marriage": 5657,
  "\u2581Purpose": 5658,
  "\u2581Rachel": 5659,
  "\u2581Stephen": 5660,
  "\u2581WHEN": 5661,
  "\u2581admit": 5662,
  "\u2581associating": 5663,
  "\u2581broken": 5664,
  "\u2581clergy": 5665,
  "\u2581contained": 5666,
  "\u2581customs": 5667,
  "\u2581delighted": 5668,
  "\u2581depict": 5669,
  "\u2581dhokno": 5670,
  "\u2581elo": 5671,
  "\u2581empty": 5672,
  "\u2581encounter": 5673,
  "\u2581engag": 5674,
  "\u2581expectation": 5675,
  "\u2581giket": 5676,
  "\u2581herane": 5677,
  "\u2581houses": 5678,
  "\u2581jwang": 5679,
  "\u2581maboyo": 5680,
  "\u2581masin": 5681,
  "\u2581mid": 5682,
  "\u2581misando": 5683,
  "\u2581modesty": 5684,
  "\u2581noyud": 5685,
  "\u2581okwa": 5686,
  "\u2581opinion": 5687,
  "\u2581otang": 5688,
  "\u2581printed": 5689,
  "\u2581ran": 5690,
  "\u2581rewards": 5691,
  "\u2581submit": 5692,
  "\u2581temptations": 5693,
  "\u2581tend": 5694,
  "\u2581terrible": 5695,
  "\u2581tradition": 5696,
  "\u2581wachop": 5697,
  "\u2581worker": 5698,
  "WA": 5699,
  "\u258137,": 5700,
  "\u258146.": 5701,
  "\u258147": 5702,
  "\u2581Dead": 5703,
  "\u2581Deut": 5704,
  "\u2581IT": 5705,
  "\u2581Josephus": 5706,
  "\u2581Kuonde": 5707,
  "\u2581November": 5708,
  "\u2581Richard": 5709,
  "\u2581center": 5710,
  "\u2581chayo": 5711,
  "\u2581chula": 5712,
  "\u2581chweyo": 5713,
  "\u2581community": 5714,
  "\u2581earnestly": 5715,
  "\u2581establish": 5716,
  "\u2581flee": 5717,
  "\u2581gadiera": 5718,
  "\u2581ginyis": 5719,
  "\u2581giromo": 5720,
  "\u2581headquarters": 5721,
  "\u2581hundred": 5722,
  "\u2581ignore": 5723,
  "\u2581jalweny": 5724,
  "\u2581jw": 5725,
  "\u2581ndikogo": 5726,
  "\u2581nolokore": 5727,
  "\u2581nyalowa": 5728,
  "\u2581ochwe": 5729,
  "\u2581odhier": 5730,
  "\u2581oik": 5731,
  "\u2581okinyi": 5732,
  "\u2581oloso": 5733,
  "\u2581opposite": 5734,
  "\u2581plague": 5735,
  "\u2581ruled": 5736,
  "\u2581rulers": 5737,
  "\u2581sadha": 5738,
  "\u2581sayings": 5739,
  "\u2581sechego": 5740,
  "\u2581shine": 5741,
  "\u2581siemno": 5742,
  "\u2581sorts": 5743,
  "\u2581tear": 5744,
  "\u2581thrilling": 5745,
  "\u2581tijene": 5746,
  "\u2581trees": 5747,
  "\u2581wagen": 5748,
  "\u2581weteni": 5749,
  "\u2581wiyi": 5750,
  "good": 5751,
  "land": 5752,
  "\u2581110": 5753,
  "\u25812003": 5754,
  "\u258157": 5755,
  "\u2581Barnabas": 5756,
  "\u2581Chwo": 5757,
  "\u2581Ghana": 5758,
  "\u2581Jehoshafat": 5759,
  "\u2581Jehoshaphat": 5760,
  "\u2581Moscow": 5761,
  "\u2581Rawera": 5762,
  "\u2581Which": 5763,
  "\u2581anymore": 5764,
  "\u2581ati": 5765,
  "\u2581attacks": 5766,
  "\u2581beauty": 5767,
  "\u2581chenrono": 5768,
  "\u2581citizens": 5769,
  "\u2581color": 5770,
  "\u2581conscious": 5771,
  "\u2581continuing": 5772,
  "\u2581courageously": 5773,
  "\u2581crime": 5774,
  "\u2581executed": 5775,
  "\u2581extraordinary": 5776,
  "\u2581failure": 5777,
  "\u2581feed": 5778,
  "\u2581giwinj": 5779,
  "\u2581giyiero": 5780,
  "\u2581hates": 5781,
  "\u2581highlight": 5782,
  "\u2581humankind": 5783,
  "\u2581idolatry": 5784,
  "\u2581indiko": 5785,
  "\u2581kanise": 5786,
  "\u2581kanyaklano": 5787,
  "\u2581motive": 5788,
  "\u2581muol": 5789,
  "\u2581nodwok": 5790,
  "\u2581norito": 5791,
  "\u2581obeyed": 5792,
  "\u2581observ": 5793,
  "\u2581opuonj": 5794,
  "\u2581oseneno": 5795,
  "\u2581percent": 5796,
  "\u2581pinyu": 5797,
  "\u2581pleasant": 5798,
  "\u2581puonjre": 5799,
  "\u2581ranyisino": 5800,
  "\u2581reputation": 5801,
  "\u2581rewarding": 5802,
  "\u2581tired": 5803,
  "\u2581torture": 5804,
  "\u2581translations": 5805,
  "\u2581unexpected": 5806,
  "\u2581wadu": 5807,
  "Bang": 5808,
  "by": 5809,
  "\u25812006": 5810,
  "\u258131)": 5811,
  "\u2581BENDE": 5812,
  "\u2581Brothers": 5813,
  "\u2581Death": 5814,
  "\u2581Don": 5815,
  "\u2581Eccl": 5816,
  "\u2581February": 5817,
  "\u2581Find": 5818,
  "\u2581GIMA": 5819,
  "\u2581Malawi": 5820,
  "\u2581Mumbe": 5821,
  "\u2581Nazi": 5822,
  "\u2581Samson": 5823,
  "\u2581St": 5824,
  "\u2581Thuolo": 5825,
  "\u2581Were": 5826,
  "\u2581amazing": 5827,
  "\u2581bus": 5828,
  "\u2581commendation": 5829,
  "\u2581constant": 5830,
  "\u2581custom": 5831,
  "\u2581depends": 5832,
  "\u2581foolish": 5833,
  "\u2581fornication": 5834,
  "\u2581jasigu": 5835,
  "\u2581lep": 5836,
  "\u2581mark": 5837,
  "\u2581mosetho": 5838,
  "\u2581mourning": 5839,
  "\u2581notieko": 5840,
  "\u2581ochueyo": 5841,
  "\u2581okete": 5842,
  "\u2581oloki": 5843,
  "\u2581omany": 5844,
  "\u2581ondiek": 5845,
  "\u2581opinions": 5846,
  "\u2581paying": 5847,
  "\u2581plant": 5848,
  "\u2581reads": 5849,
  "\u2581searching": 5850,
  "\u2581thankful": 5851,
  "\u2581timogo": 5852,
  "\u2581tools": 5853,
  "\u2581top": 5854,
  "\u2581urges": 5855,
  "\u2581witnessed": 5856,
  "\u2581wuondore": 5857,
  "\u2581yudoe": 5858,
  "Eze": 5859,
  "ge": 5860,
  "marital": 5861,
  "tamre": 5862,
  "\u258141,": 5863,
  "\u258141.": 5864,
  "\u258171": 5865,
  "\u258173": 5866,
  "\u2581Additional": 5867,
  "\u2581Bad": 5868,
  "\u2581Bolruok": 5869,
  "\u2581Faithful": 5870,
  "\u2581Friend": 5871,
  "\u2581Gold": 5872,
  "\u2581Grand": 5873,
  "\u2581Maintain": 5874,
  "\u2581Minwa": 5875,
  "\u2581Nonro": 5876,
  "\u2581Omed": 5877,
  "\u2581Reign": 5878,
  "\u2581Sud": 5879,
  "\u2581Tiende": 5880,
  "\u2581Yer": 5881,
  "\u2581aromo": 5882,
  "\u2581caught": 5883,
  "\u2581cherish": 5884,
  "\u2581chwogi": 5885,
  "\u2581debt": 5886,
  "\u2581disappointed": 5887,
  "\u2581discussions": 5888,
  "\u2581distressing": 5889,
  "\u2581drugs": 5890,
  "\u2581equal": 5891,
  "\u2581evolution": 5892,
  "\u2581fields": 5893,
  "\u2581hair": 5894,
  "\u2581hidden": 5895,
  "\u2581impart": 5896,
  "\u2581jasomo": 5897,
  "\u2581jiwi": 5898,
  "\u2581konchiel": 5899,
  "\u2581looks": 5900,
  "\u2581makonyowa": 5901,
  "\u2581male": 5902,
  "\u2581manuscripts": 5903,
  "\u2581memory": 5904,
  "\u2581miracle": 5905,
  "\u2581mochopo": 5906,
  "\u2581nyamin": 5907,
  "\u2581nyinga": 5908,
  "\u2581nyiswa": 5909,
  "\u2581odwok": 5910,
  "\u2581omon": 5911,
  "\u2581osetem": 5912,
  "\u2581police": 5913,
  "\u2581privileged": 5914,
  "\u2581readers": 5915,
  "\u2581riek": 5916,
  "\u2581satisfied": 5917,
  "\u2581senses": 5918,
  "\u2581signs": 5919,
  "\u2581silver": 5920,
  "\u2581timoga": 5921,
  "\u2581types": 5922,
  "\u2581victim": 5923,
  "\u2581wagoyo": 5924,
  "\u2581wajo": 5925,
  "\u2581widely": 5926,
  "\u2581won": 5927,
  "By": 5928,
  "Your": 5929,
  "chuny": 5930,
  "ochakore": 5931,
  "wuotho": 5932,
  "\u25812016": 5933,
  "\u258191": 5934,
  "\u2581Congregation": 5935,
  "\u2581Februar": 5936,
  "\u2581Jadolo": 5937,
  "\u2581Judge": 5938,
  "\u2581Lokruok": 5939,
  "\u2581Mother": 5940,
  "\u2581News": 5941,
  "\u2581Nyasacha": 5942,
  "\u2581Pilate": 5943,
  "\u2581Spiritual": 5944,
  "\u2581Thousand": 5945,
  "\u2581Yeremia": 5946,
  "\u2581acquainted": 5947,
  "\u2581admits": 5948,
  "\u2581awacho": 5949,
  "\u2581blame": 5950,
  "\u2581bound": 5951,
  "\u2581brosua": 5952,
  "\u2581capable": 5953,
  "\u2581captivity": 5954,
  "\u2581chil": 5955,
  "\u2581cold": 5956,
  "\u2581condemned": 5957,
  "\u2581corruption": 5958,
  "\u2581dark": 5959,
  "\u2581disasters": 5960,
  "\u2581doctor": 5961,
  "\u2581donation": 5962,
  "\u2581educational": 5963,
  "\u2581faces": 5964,
  "\u2581feature": 5965,
  "\u2581forced": 5966,
  "\u2581gimi": 5967,
  "\u2581gowi": 5968,
  "\u2581grant": 5969,
  "\u2581historical": 5970,
  "\u2581imperfections": 5971,
  "\u2581imprisoned": 5972,
  "\u2581ipuonjori": 5973,
  "\u2581jakinda": 5974,
  "\u2581kanyaklau": 5975,
  "\u2581kothe": 5976,
  "\u2581majiwo": 5977,
  "\u2581mass": 5978,
  "\u2581ministers": 5979,
  "\u2581moyier": 5980,
  "\u2581nayudo": 5981,
  "\u2581nobet": 5982,
  "\u2581nomi": 5983,
  "\u2581nonenore": 5984,
  "\u2581omulo": 5985,
  "\u2581oriw": 5986,
  "\u2581planet": 5987,
  "\u2581possib": 5988,
  "\u2581priesthood": 5989,
  "\u2581projects": 5990,
  "\u2581punishment": 5991,
  "\u2581repeated": 5992,
  "\u2581reserved": 5993,
  "\u2581ripot": 5994,
  "\u2581sincerely": 5995,
  "\u2581stories": 5996,
  "\u2581tekowa": 5997,
  "\u2581temper": 5998,
  "\u2581trakt": 5999,
  "\u2581troubled": 6000,
  "\u2581urgent": 6001,
  "\u2581wariw": 6002,
  "\u2581warns": 6003,
  "\u2581wasumbni": 6004,
  "\u2581wiya": 6005,
  "\u2581yorewa": 6006,
  "\u2581yweyo": 6007,
  "\u25cf": 6008,
  "Nyaka": 6009,
  "but": 6010,
  "fulness": 6011,
  "kuwe": 6012,
  "rieko": 6013,
  "sebedo": 6014,
  "\u25811995": 6015,
  "\u25814.)": 6016,
  "\u2581Andrew": 6017,
  "\u2581Bedell": 6018,
  "\u2581Chunyi": 6019,
  "\u2581Galilee": 6020,
  "\u2581Jumapil": 6021,
  "\u2581Kings": 6022,
  "\u2581Philip": 6023,
  "\u2581Speaking": 6024,
  "\u2581alworau": 6025,
  "\u2581bathe": 6026,
  "\u2581birds": 6027,
  "\u2581chun": 6028,
  "\u2581crushed": 6029,
  "\u2581cup": 6030,
  "\u2581distinguish": 6031,
  "\u2581effectively": 6032,
  "\u2581existed": 6033,
  "\u2581fallen": 6034,
  "\u2581fears": 6035,
  "\u2581gidonj": 6036,
  "\u2581guedho": 6037,
  "\u2581guilty": 6038,
  "\u2581huge": 6039,
  "\u2581impression": 6040,
  "\u2581iwachon": 6041,
  "\u2581jalno": 6042,
  "\u2581jomaricho": 6043,
  "\u2581jowasigu": 6044,
  "\u2581kidogo": 6045,
  "\u2581kuong": 6046,
  "\u2581lawlessness": 6047,
  "\u2581length": 6048,
  "\u2581maketo": 6049,
  "\u2581mayudo": 6050,
  "\u2581mochak": 6051,
  "\u2581nawinjo": 6052,
  "\u2581nengone": 6053,
  "\u2581okwedo": 6054,
  "\u2581oppose": 6055,
  "\u2581oteloeni": 6056,
  "\u2581participate": 6057,
  "\u2581rejoicing": 6058,
  "\u2581returning": 6059,
  "\u2581significance": 6060,
  "\u2581striv": 6061,
  "\u2581tabernacle": 6062,
  "\u2581threat": 6063,
  "\u2581thuchegi": 6064,
  "\u2581wagombo": 6065,
  "\u2581wakwed": 6066,
  "\u2581yoreni": 6067,
  "\u2581yorno": 6068,
  "Go": 6069,
  "chielo": 6070,
  "il": 6071,
  "some": 6072,
  "wuoyo": 6073,
  "\u25811999": 6074,
  "\u2581Faransa": 6075,
  "\u2581International": 6076,
  "\u2581KUOM": 6077,
  "\u2581Leader": 6078,
  "\u2581Lef\u00e8vre": 6079,
  "\u2581Malo": 6080,
  "\u2581Manie": 6081,
  "\u2581Marcus": 6082,
  "\u2581Martin": 6083,
  "\u2581Ndalogi": 6084,
  "\u2581Neh": 6085,
  "\u2581Nomed": 6086,
  "\u2581North": 6087,
  "\u2581PUONJ": 6088,
  "\u2581Wuonu": 6089,
  "\u2581blesse": 6090,
  "\u2581calamity": 6091,
  "\u2581chikne": 6092,
  "\u2581chokruog": 6093,
  "\u2581commended": 6094,
  "\u2581deceived": 6095,
  "\u2581deeper": 6096,
  "\u2581discernment": 6097,
  "\u2581fled": 6098,
  "\u2581forgiven": 6099,
  "\u2581gaining": 6100,
  "\u2581gifwenyo": 6101,
  "\u2581gigoyo": 6102,
  "\u2581gilando": 6103,
  "\u2581guilt": 6104,
  "\u2581histori": 6105,
  "\u2581ikore": 6106,
  "\u2581jowadgi": 6107,
  "\u2581kiny": 6108,
  "\u2581kitgi": 6109,
  "\u2581maberno": 6110,
  "\u2581mochanore": 6111,
  "\u2581ndik": 6112,
  "\u2581nokalo": 6113,
  "\u2581nomiyowa": 6114,
  "\u2581nondiki": 6115,
  "\u2581nowachonegi": 6116,
  "\u2581nyosore": 6117,
  "\u2581obstacles": 6118,
  "\u2581odar": 6119,
  "\u2581odgi": 6120,
  "\u2581oseweyo": 6121,
  "\u2581otieko": 6122,
  "\u2581perfectly": 6123,
  "\u2581planning": 6124,
  "\u2581poverty": 6125,
  "\u2581principal": 6126,
  "\u2581realm": 6127,
  "\u2581refreshing": 6128,
  "\u2581remembered": 6129,
  "\u2581safety": 6130,
  "\u2581shepherding": 6131,
  "\u2581smoking": 6132,
  "\u2581specifically": 6133,
  "\u2581taondno": 6134,
  "\u2581watiyogo": 6135,
  "okayo": 6136,
  "ty": 6137,
  "\u25811930": 6138,
  "\u25811940": 6139,
  "\u25811955": 6140,
  "\u25812004": 6141,
  "\u258138,": 6142,
  "\u258184": 6143,
  "\u2581ANE": 6144,
  "\u2581Austria": 6145,
  "\u2581Become": 6146,
  "\u2581Chronicles": 6147,
  "\u2581East": 6148,
  "\u2581Encyclopedia": 6149,
  "\u2581Gocho": 6150,
  "\u2581Heart": 6151,
  "\u2581Josh": 6152,
  "\u2581Ofis": 6153,
  "\u2581Priest": 6154,
  "\u2581Rebekah": 6155,
  "\u2581Rito": 6156,
  "\u2581Says": 6157,
  "\u2581Source": 6158,
  "\u2581burning": 6159,
  "\u2581cast": 6160,
  "\u2581computer": 6161,
  "\u2581continually": 6162,
  "\u2581covered": 6163,
  "\u2581credit": 6164,
  "\u2581cultivating": 6165,
  "\u2581disobedience": 6166,
  "\u2581extra": 6167,
  "\u2581gikaw": 6168,
  "\u2581gipuonjo": 6169,
  "\u2581hoyowa": 6170,
  "\u2581igeno": 6171,
  "\u2581jochiendene": 6172,
  "\u2581joland": 6173,
  "\u2581jowuoth": 6174,
  "\u2581kadho": 6175,
  "\u2581kanyaklawa": 6176,
  "\u2581kethi": 6177,
  "\u2581konyruok": 6178,
  "\u2581low": 6179,
  "\u2581luet": 6180,
  "\u2581minded": 6181,
  "\u2581moketi": 6182,
  "\u2581nanyal": 6183,
  "\u2581nochak": 6184,
  "\u2581nolando": 6185,
  "\u2581nya": 6186,
  "\u2581nyithi": 6187,
  "\u2581obatisgi": 6188,
  "\u2581obtained": 6189,
  "\u2581ochayo": 6190,
  "\u2581ochul": 6191,
  "\u2581ofweny": 6192,
  "\u2581oked": 6193,
  "\u2581okendo": 6194,
  "\u2581onenore": 6195,
  "\u2581outline": 6196,
  "\u2581pieche": 6197,
  "\u2581portion": 6198,
  "\u2581proclaim": 6199,
  "\u2581quiet": 6200,
  "\u2581ranyisini": 6201,
  "\u2581running": 6202,
  "\u2581satisfy": 6203,
  "\u2581settle": 6204,
  "\u2581sigendini": 6205,
  "\u2581sing": 6206,
  "\u2581statements": 6207,
  "\u2581suggest": 6208,
  "\u2581surface": 6209,
  "\u2581team": 6210,
  "\u2581teknegi": 6211,
  "\u2581thorough": 6212,
  "\u2581thuolona": 6213,
  "\u2581uso": 6214,
  "\u2581visible": 6215,
  "\u2581websait": 6216,
  "\u2581worshipped": 6217,
  "\u2581wuoda": 6218,
  "Gik": 6219,
  "highlighted": 6220,
  "\u2581130": 6221,
  "\u2581147": 6222,
  "\u258117]": 6223,
  "\u25811990": 6224,
  "\u2581Above": 6225,
  "\u2581Assuria": 6226,
  "\u2581BIBLIA": 6227,
  "\u2581Cha": 6228,
  "\u2581Gan": 6229,
  "\u2581JA": 6230,
  "\u2581NI": 6231,
  "\u2581Nabal": 6232,
  "\u2581Nyime": 6233,
  "\u2581OUR": 6234,
  "\u2581Ohio": 6235,
  "\u2581Truth": 6236,
  "\u2581Year": 6237,
  "\u2581adhere": 6238,
  "\u2581afterward": 6239,
  "\u2581ataro": 6240,
  "\u2581avoided": 6241,
  "\u2581clothes": 6242,
  "\u2581creature": 6243,
  "\u2581daher": 6244,
  "\u2581dakie": 6245,
  "\u2581development": 6246,
  "\u2581discover": 6247,
  "\u2581dwonde": 6248,
  "\u2581entity": 6249,
  "\u2581examination": 6250,
  "\u2581g": 6251,
  "\u2581gach": 6252,
  "\u2581gichop": 6253,
  "\u2581healed": 6254,
  "\u2581jakanyo": 6255,
  "\u2581judges": 6256,
  "\u2581kansa": 6257,
  "\u2581literally": 6258,
  "\u2581luwe": 6259,
  "\u2581makati": 6260,
  "\u2581meek": 6261,
  "\u2581mineno": 6262,
  "\u2581mora": 6263,
  "\u2581nogol": 6264,
  "\u2581nowero": 6265,
  "\u2581nyi": 6266,
  "\u2581opposed": 6267,
  "\u2581passages": 6268,
  "\u2581patriarch": 6269,
  "\u2581profound": 6270,
  "\u2581raia": 6271,
  "\u2581sayans": 6272,
  "\u2581shoulder": 6273,
  "\u2581stumble": 6274,
  "\u2581taste": 6275,
  "\u2581televison": 6276,
  "\u2581tiek": 6277,
  "\u2581twice": 6278,
  "\u2581undergo": 6279,
  "\u2581valley": 6280,
  "\u2581viewing": 6281,
  "\u2581waluor": 6282,
  "\u2581wear": 6283,
  "\u2581wedene": 6284,
  "\u2581welcomed": 6285,
  "\u2581wuodhe": 6286,
  "ler": 6287,
  "luongo": 6288,
  "piny": 6289,
  "they": 6290,
  "\u2581Aora": 6291,
  "\u2581Concern": 6292,
  "\u2581Dongruok": 6293,
  "\u2581HIGA": 6294,
  "\u2581Mang": 6295,
  "\u2581abuse": 6296,
  "\u2581adierago": 6297,
  "\u2581appealing": 6298,
  "\u2581application": 6299,
  "\u2581bitter": 6300,
  "\u2581chwanyruok": 6301,
  "\u2581clay": 6302,
  "\u2581compromise": 6303,
  "\u2581dedicate": 6304,
  "\u2581dend": 6305,
  "\u2581developments": 6306,
  "\u2581factor": 6307,
  "\u2581fed": 6308,
  "\u2581funds": 6309,
  "\u2581greed": 6310,
  "\u2581hoped": 6311,
  "\u2581hospital": 6312,
  "\u2581imitation": 6313,
  "\u2581interesting": 6314,
  "\u2581island": 6315,
  "\u2581jokony": 6316,
  "\u2581judging": 6317,
  "\u2581kel": 6318,
  "\u2581lion": 6319,
  "\u2581manadi": 6320,
  "\u2581minutes": 6321,
  "\u2581mobam": 6322,
  "\u2581naneno": 6323,
  "\u2581ndalogo": 6324,
  "\u2581nomor": 6325,
  "\u2581nopogore": 6326,
  "\u2581nosetho": 6327,
  "\u2581notimono": 6328,
  "\u2581nyingegi": 6329,
  "\u2581observes": 6330,
  "\u2581ongoing": 6331,
  "\u2581osiepewa": 6332,
  "\u2581outlook": 6333,
  "\u2581preachers": 6334,
  "\u2581rendering": 6335,
  "\u2581respected": 6336,
  "\u2581rite": 6337,
  "\u2581rwak": 6338,
  "\u2581sanctified": 6339,
  "\u2581select": 6340,
  "\u2581shortly": 6341,
  "\u2581sibuor": 6342,
  "\u2581sitting": 6343,
  "\u2581solution": 6344,
  "\u2581struggling": 6345,
  "\u2581suggested": 6346,
  "\u2581th": 6347,
  "\u2581tijegi": 6348,
  "\u2581title": 6349,
  "\u2581waromogo": 6350,
  "\u2581wawach": 6351,
  "\u2581weyone": 6352,
  "IES": 6353,
  "Who": 6354,
  "ber": 6355,
  "luoro": 6356,
  "mo": 6357,
  "nde": 6358,
  "\u258152": 6359,
  "\u2581AND": 6360,
  "\u2581ARTICLE": 6361,
  "\u2581Bezalel": 6362,
  "\u2581Bulgaria": 6363,
  "\u2581Chiwruok": 6364,
  "\u2581Erokamano": 6365,
  "\u2581Gweth": 6366,
  "\u2581Josia": 6367,
  "\u2581Josiah": 6368,
  "\u2581MOA": 6369,
  "\u2581NYIM": 6370,
  "\u2581Philippi": 6371,
  "\u2581Rose": 6372,
  "\u2581Serv": 6373,
  "\u2581State": 6374,
  "\u2581Three": 6375,
  "\u2581View": 6376,
  "\u2581aged": 6377,
  "\u2581arrive": 6378,
  "\u2581bat": 6379,
  "\u2581buok": 6380,
  "\u2581chance": 6381,
  "\u2581choke": 6382,
  "\u2581comment": 6383,
  "\u2581duties": 6384,
  "\u2581eternity": 6385,
  "\u2581execution": 6386,
  "\u2581fathers": 6387,
  "\u2581fulfilling": 6388,
  "\u2581gimarach": 6389,
  "\u2581gisik": 6390,
  "\u2581gonyo": 6391,
  "\u2581harsh": 6392,
  "\u2581hated": 6393,
  "\u2581hesitate": 6394,
  "\u2581immediate": 6395,
  "\u2581inyis": 6396,
  "\u2581janabino": 6397,
  "\u2581kampen": 6398,
  "\u2581maloso": 6399,
  "\u2581mamoro": 6400,
  "\u2581mawinjo": 6401,
  "\u2581memories": 6402,
  "\u2581mentions": 6403,
  "\u2581mochiwore": 6404,
  "\u2581modok": 6405,
  "\u2581monj": 6406,
  "\u2581mtokni": 6407,
  "\u2581ndalone": 6408,
  "\u2581neutrality": 6409,
  "\u2581noikore": 6410,
  "\u2581nyithindogo": 6411,
  "\u2581obedgo": 6412,
  "\u2581oja": 6413,
  "\u2581ordered": 6414,
  "\u2581osekonyowa": 6415,
  "\u2581osom": 6416,
  "\u2581owuog": 6417,
  "\u2581replaced": 6418,
  "\u2581requirement": 6419,
  "\u2581romre": 6420,
  "\u2581selected": 6421,
  "\u2581sigana": 6422,
  "\u2581sorrow": 6423,
  "\u2581stumbling": 6424,
  "\u2581survived": 6425,
  "\u2581tekogi": 6426,
  "\u2581tempered": 6427,
  "\u2581texts": 6428,
  "\u2581unusual": 6429,
  "\u2581wabedgo": 6430,
  "\u2581watchful": 6431,
  "\u2581wholeheartedly": 6432,
  "\u2581widows": 6433,
  "T": 6434,
  "ard": 6435,
  "icham": 6436,
  "um": 6437,
  "was": 6438,
  "\u2581133": 6439,
  "\u258114.)": 6440,
  "\u258147.": 6441,
  "\u2581Baruk": 6442,
  "\u2581Batiso": 6443,
  "\u2581COR": 6444,
  "\u2581Dad": 6445,
  "\u2581Deborah": 6446,
  "\u2581Evidently": 6447,
  "\u2581Filipo": 6448,
  "\u2581JOMA": 6449,
  "\u2581Jeriko": 6450,
  "\u2581KOR": 6451,
  "\u2581Mwandu": 6452,
  "\u2581Odwaro": 6453,
  "\u2581Theocratic": 6454,
  "\u2581Web": 6455,
  "\u2581adwar": 6456,
  "\u2581agreement": 6457,
  "\u2581aonge": 6458,
  "\u2581appointment": 6459,
  "\u2581arms": 6460,
  "\u2581ase": 6461,
  "\u2581atmosphere": 6462,
  "\u2581billions": 6463,
  "\u2581bore": 6464,
  "\u2581commissioned": 6465,
  "\u2581cross": 6466,
  "\u2581crowds": 6467,
  "\u2581dikor": 6468,
  "\u2581doubts": 6469,
  "\u2581dust": 6470,
  "\u2581east": 6471,
  "\u2581equipped": 6472,
  "\u2581exhort": 6473,
  "\u2581fier": 6474,
  "\u2581gidakie": 6475,
  "\u2581holds": 6476,
  "\u2581horse": 6477,
  "\u2581hypocrisy": 6478,
  "\u2581ichiwo": 6479,
  "\u2581inspiration": 6480,
  "\u2581ipuonjo": 6481,
  "\u2581ira": 6482,
  "\u2581joyfully": 6483,
  "\u2581kelonegi": 6484,
  "\u2581kopim": 6485,
  "\u2581korgi": 6486,
  "\u2581lakteche": 6487,
  "\u2581manenore": 6488,
  "\u2581momiwa": 6489,
  "\u2581mosetim": 6490,
  "\u2581moyiego": 6491,
  "\u2581north": 6492,
  "\u2581nosiemo": 6493,
  "\u2581nyasino": 6494,
  "\u2581nyithinda": 6495,
  "\u2581osiepna": 6496,
  "\u2581otagi": 6497,
  "\u2581pien": 6498,
  "\u2581pity": 6499,
  "\u2581prayerful": 6500,
  "\u2581prompt": 6501,
  "\u2581propaganda": 6502,
  "\u2581publicly": 6503,
  "\u2581reflects": 6504,
  "\u2581remnant": 6505,
  "\u2581reru": 6506,
  "\u2581totally": 6507,
  "\u2581transform": 6508,
  "\u2581turns": 6509,
  "\u2581wabende": 6510,
  "\u2581wadakie": 6511,
  "\u2581wapuonjo": 6512,
  "\u2581wariwo": 6513,
  "\u2581wawinjore": 6514,
  "\u2581wechewa": 6515,
  "\u2581wholesome": 6516,
  "\u2581yadhno": 6517,
  "\u2581yand": 6518,
  "\u2581yiegi": 6519,
  "\u2581yield": 6520,
  "\u2581yielding": 6521,
  "Ezra": 6522,
  "Photo": 6523,
  "Why": 6524,
  "chwalowa": 6525,
  "thur": 6526,
  "\u25811958": 6527,
  "\u2581Ecuador": 6528,
  "\u2581ISA": 6529,
  "\u2581Ineno": 6530,
  "\u2581Jer": 6531,
  "\u2581Jotend": 6532,
  "\u2581Lives": 6533,
  "\u2581Madier": 6534,
  "\u2581Med": 6535,
  "\u2581Near": 6536,
  "\u2581Osiep": 6537,
  "\u2581Septuagint": 6538,
  "\u2581Sinai": 6539,
  "\u2581Thes": 6540,
  "\u2581Ukraine": 6541,
  "\u2581Wasom": 6542,
  "\u2581ajahig": 6543,
  "\u2581arose": 6544,
  "\u2581arus": 6545,
  "\u2581associations": 6546,
  "\u2581burn": 6547,
  "\u2581chandruogego": 6548,
  "\u2581comforts": 6549,
  "\u2581deaf": 6550,
  "\u2581description": 6551,
  "\u2581deserve": 6552,
  "\u2581diere": 6553,
  "\u2581distracted": 6554,
  "\u2581dolo": 6555,
  "\u2581exposed": 6556,
  "\u2581gang": 6557,
  "\u2581gentle": 6558,
  "\u2581gets": 6559,
  "\u2581gidwar": 6560,
  "\u2581godhiambo": 6561,
  "\u2581gracious": 6562,
  "\u2581grieving": 6563,
  "\u2581iketho": 6564,
  "\u2581iluwo": 6565,
  "\u2581indication": 6566,
  "\u2581initially": 6567,
  "\u2581jooda": 6568,
  "\u2581judgments": 6569,
  "\u2581mamono": 6570,
  "\u2581method": 6571,
  "\u2581middle": 6572,
  "\u2581muma": 6573,
  "\u2581nafwenyo": 6574,
  "\u2581nolemo": 6575,
  "\u2581notayo": 6576,
  "\u2581nyien": 6577,
  "\u2581ochweyo": 6578,
  "\u2581officer": 6579,
  "\u2581ogombo": 6580,
  "\u2581onyisogi": 6581,
  "\u2581otimne": 6582,
  "\u2581owadu": 6583,
  "\u2581penje": 6584,
  "\u2581pleasures": 6585,
  "\u2581pour": 6586,
  "\u2581prior": 6587,
  "\u2581proclaimers": 6588,
  "\u2581remote": 6589,
  "\u2581sessions": 6590,
  "\u2581sets": 6591,
  "\u2581sinembe": 6592,
  "\u2581sinner": 6593,
  "\u2581smile": 6594,
  "\u2581tested": 6595,
  "\u2581thowi": 6596,
  "\u2581typical": 6597,
  "\u2581upset": 6598,
  "\u2581victims": 6599,
  "\u2581wadok": 6600,
  "\u2581wakendore": 6601,
  "\u2581walamo": 6602,
  "\u2581wamany": 6603,
  "\u2581warwako": 6604,
  "\u2581weekly": 6605,
  "Bura": 6606,
  "ally": 6607,
  "angelic": 6608,
  "bedo": 6609,
  "body": 6610,
  "ce": 6611,
  "la": 6612,
  "sent": 6613,
  "set": 6614,
  "wach": 6615,
  "\u2581111": 6616,
  "\u2581150": 6617,
  "\u25811879": 6618,
  "\u2581Avoid": 6619,
  "\u2581Bi": 6620,
  "\u2581Chokruoge": 6621,
  "\u2581Ear": 6622,
  "\u2581Georgia": 6623,
  "\u2581Jericho": 6624,
  "\u2581Kelo": 6625,
  "\u2581Lemo": 6626,
  "\u2581Leviticus": 6627,
  "\u2581OK": 6628,
  "\u2581Ot": 6629,
  "\u2581TIMO": 6630,
  "\u2581Turkey": 6631,
  "\u2581WACHO": 6632,
  "\u2581alufe": 6633,
  "\u2581analyze": 6634,
  "\u2581badly": 6635,
  "\u2581bow": 6636,
  "\u2581burned": 6637,
  "\u2581cancer": 6638,
  "\u2581chande": 6639,
  "\u2581charge": 6640,
  "\u2581confirmed": 6641,
  "\u2581desired": 6642,
  "\u2581diriyo": 6643,
  "\u2581dying": 6644,
  "\u2581everywhere": 6645,
  "\u2581exact": 6646,
  "\u2581examining": 6647,
  "\u2581explaining": 6648,
  "\u2581foot": 6649,
  "\u2581fresh": 6650,
  "\u2581gipuonjre": 6651,
  "\u2581healing": 6652,
  "\u2581ikony": 6653,
  "\u2581janeno": 6654,
  "\u2581jealous": 6655,
  "\u2581jiwe": 6656,
  "\u2581jodak": 6657,
  "\u2581jopuonjrena": 6658,
  "\u2581jowinjone": 6659,
  "\u2581kingship": 6660,
  "\u2581labor": 6661,
  "\u2581liet": 6662,
  "\u2581location": 6663,
  "\u2581lwar": 6664,
  "\u2581michiwo": 6665,
  "\u2581mzabibu": 6666,
  "\u2581ndikoni": 6667,
  "\u2581nodong": 6668,
  "\u2581noket": 6669,
  "\u2581nokwedo": 6670,
  "\u2581olive": 6671,
  "\u2581omedore": 6672,
  "\u2581onege": 6673,
  "\u2581outset": 6674,
  "\u2581positions": 6675,
  "\u2581punish": 6676,
  "\u2581redio": 6677,
  "\u2581refreshment": 6678,
  "\u2581repent": 6679,
  "\u2581sale": 6680,
  "\u2581senchari": 6681,
  "\u2581telephone": 6682,
  "\u2581tent": 6683,
  "\u2581visitors": 6684,
  "\u2581volunteers": 6685,
  "\u2581worshipper": 6686,
  "\u2581zeituni": 6687,
  "Beduru": 6688,
  "Israel": 6689,
  "ayo": 6690,
  "longside": 6691,
  "those": 6692,
  "\u2581106": 6693,
  "\u25812017": 6694,
  "\u258189": 6695,
  "\u2581ALS": 6696,
  "\u2581ANSWERED": 6697,
  "\u2581Amos": 6698,
  "\u2581Bath": 6699,
  "\u2581CAN": 6700,
  "\u2581Chokruo": 6701,
  "\u2581Chon": 6702,
  "\u2581Credi": 6703,
  "\u2581Empire": 6704,
  "\u2581Hans": 6705,
  "\u2581JOLENDO": 6706,
  "\u2581Koda": 6707,
  "\u2581Kodhi": 6708,
  "\u2581Mean": 6709,
  "\u2581Moro": 6710,
  "\u2581Mumano": 6711,
  "\u2581Mungu": 6712,
  "\u2581Next": 6713,
  "\u2581PUBLISHERS": 6714,
  "\u2581Shirley": 6715,
  "\u2581TV": 6716,
  "\u2581Thereafter": 6717,
  "\u2581Winj": 6718,
  "\u2581Wuo": 6719,
  "\u2581access": 6720,
  "\u2581adapt": 6721,
  "\u2581arrival": 6722,
  "\u2581backing": 6723,
  "\u2581belonging": 6724,
  "\u2581bit": 6725,
  "\u2581chan": 6726,
  "\u2581claims": 6727,
  "\u2581convince": 6728,
  "\u2581depression": 6729,
  "\u2581deserves": 6730,
  "\u2581dhier": 6731,
  "\u2581disposition": 6732,
  "\u2581gimed": 6733,
  "\u2581guondo": 6734,
  "\u2581hide": 6735,
  "\u2581hospitable": 6736,
  "\u2581jiwa": 6737,
  "\u2581jok": 6738,
  "\u2581kwaye": 6739,
  "\u2581located": 6740,
  "\u2581makwar": 6741,
  "\u2581missing": 6742,
  "\u2581mold": 6743,
  "\u2581monyuol": 6744,
  "\u2581natimo": 6745,
  "\u2581nodagi": 6746,
  "\u2581norther": 6747,
  "\u2581nowachogo": 6748,
  "\u2581noyawo": 6749,
  "\u2581obligation": 6750,
  "\u2581ochano": 6751,
  "\u2581oduog": 6752,
  "\u2581openly": 6753,
  "\u2581oppression": 6754,
  "\u2581osiepegi": 6755,
  "\u2581owal": 6756,
  "\u2581pursuit": 6757,
  "\u2581range": 6758,
  "\u2581rebuild": 6759,
  "\u2581receives": 6760,
  "\u2581reproach": 6761,
  "\u2581safeguard": 6762,
  "\u2581sending": 6763,
  "\u2581settled": 6764,
  "\u2581sheba": 6765,
  "\u2581sports": 6766,
  "\u2581tendencies": 6767,
  "\u2581terore": 6768,
  "\u2581trustworthy": 6769,
  "\u2581waked": 6770,
  "\u2581wanan": 6771,
  "Weche": 6772,
  "achako": 6773,
  "eyi": 6774,
  "mondo": 6775,
  "my": 6776,
  "specially": 6777,
  "that": 6778,
  "working": 6779,
  "\u258143.": 6780,
  "\u258159": 6781,
  "\u258162": 6782,
  "\u2581Arthur": 6783,
  "\u2581Bill": 6784,
  "\u2581California": 6785,
  "\u2581Chandruoge": 6786,
  "\u2581Changes": 6787,
  "\u2581Dak": 6788,
  "\u2581Debora": 6789,
  "\u2581Didek": 6790,
  "\u2581Din": 6791,
  "\u2581Gimaduong": 6792,
  "\u2581Jatich": 6793,
  "\u2581Jona": 6794,
  "\u2581Living": 6795,
  "\u2581MATH": 6796,
  "\u2581Mal": 6797,
  "\u2581Megan": 6798,
  "\u2581Megiddo": 6799,
  "\u2581Min": 6800,
  "\u2581Osiepe": 6801,
  "\u2581Polo": 6802,
  "\u2581Sigand": 6803,
  "\u2581Trust": 6804,
  "\u2581V": 6805,
  "\u2581Wadwar": 6806,
  "\u2581Yearbook": 6807,
  "\u2581adak": 6808,
  "\u2581alemo": 6809,
  "\u2581bereaved": 6810,
  "\u2581bunde": 6811,
  "\u2581chokore": 6812,
  "\u2581comparison": 6813,
  "\u2581completed": 6814,
  "\u2581copper": 6815,
  "\u2581declaring": 6816,
  "\u2581depressed": 6817,
  "\u2581devote": 6818,
  "\u2581dry": 6819,
  "\u2581earn": 6820,
  "\u2581emblems": 6821,
  "\u2581exchange": 6822,
  "\u2581famous": 6823,
  "\u2581fortify": 6824,
  "\u2581fourth": 6825,
  "\u2581fuwo": 6826,
  "\u2581gipar": 6827,
  "\u2581giting": 6828,
  "\u2581hinder": 6829,
  "\u2581hinyowa": 6830,
  "\u2581igoyo": 6831,
  "\u2581illustrated": 6832,
  "\u2581inactive": 6833,
  "\u2581inon": 6834,
  "\u2581isik": 6835,
  "\u2581maling": 6836,
  "\u2581manifested": 6837,
  "\u2581masinde": 6838,
  "\u2581monyis": 6839,
  "\u2581necessarily": 6840,
  "\u2581nolalo": 6841,
  "\u2581nomedore": 6842,
  "\u2581nwoyo": 6843,
  "\u2581obatis": 6844,
  "\u2581ochiegni": 6845,
  "\u2581onono": 6846,
  "\u2581priceless": 6847,
  "\u2581printing": 6848,
  "\u2581proceeded": 6849,
  "\u2581prominence": 6850,
  "\u2581prov": 6851,
  "\u2581reside": 6852,
  "\u2581services": 6853,
  "\u2581singleness": 6854,
  "\u2581skunde": 6855,
  "\u2581station": 6856,
  "\u2581suggests": 6857,
  "\u2581thuon": 6858,
  "\u2581vary": 6859,
  "\u2581wachiwore": 6860,
  "\u2581wakwaye": 6861,
  "\u2581wapenjore": 6862,
  "\u2581weakness": 6863,
  "\u2581wherea": 6864,
  "Happy": 6865,
  "Kinde": 6866,
  "de": 6867,
  "dho": 6868,
  "eya": 6869,
  "eyogi": 6870,
  "gave": 6871,
  "iyogo": 6872,
  "lo": 6873,
  "\u25811976)": 6874,
  "\u25812001": 6875,
  "\u25819.)": 6876,
  "\u2581Alwora": 6877,
  "\u2581Babel": 6878,
  "\u2581Baruch": 6879,
  "\u2581Chier": 6880,
  "\u2581Christlike": 6881,
  "\u2581Je": 6882,
  "\u2581Kwa": 6883,
  "\u2581Nang": 6884,
  "\u2581Right": 6885,
  "\u2581Rit": 6886,
  "\u2581Try": 6887,
  "\u2581Zion": 6888,
  "\u2581achieve": 6889,
  "\u2581announced": 6890,
  "\u2581aora": 6891,
  "\u2581arrested": 6892,
  "\u2581bao": 6893,
  "\u2581boat": 6894,
  "\u2581bones": 6895,
  "\u2581churches": 6896,
  "\u2581correction": 6897,
  "\u2581dewowa": 6898,
  "\u2581directions": 6899,
  "\u2581elements": 6900,
  "\u2581ends": 6901,
  "\u2581enhance": 6902,
  "\u2581errors": 6903,
  "\u2581experiencing": 6904,
  "\u2581friendly": 6905,
  "\u2581garments": 6906,
  "\u2581handed": 6907,
  "\u2581hears": 6908,
  "\u2581helper": 6909,
  "\u2581higano": 6910,
  "\u2581iluonge": 6911,
  "\u2581intelligent": 6912,
  "\u2581intentions": 6913,
  "\u2581intimate": 6914,
  "\u2581iron": 6915,
  "\u2581iyiero": 6916,
  "\u2581ketonwa": 6917,
  "\u2581kwede": 6918,
  "\u2581la": 6919,
  "\u2581luongore": 6920,
  "\u2581machiegnini": 6921,
  "\u2581marom": 6922,
  "\u2581mer": 6923,
  "\u2581miaha": 6924,
  "\u2581mogeno": 6925,
  "\u2581moriere": 6926,
  "\u2581mosebatisi": 6927,
  "\u2581mula": 6928,
  "\u2581murder": 6929,
  "\u2581norumo": 6930,
  "\u2581nowang": 6931,
  "\u2581oherogi": 6932,
  "\u2581olendo": 6933,
  "\u2581onyisowa": 6934,
  "\u2581osiepeni": 6935,
  "\u2581parore": 6936,
  "\u2581peers": 6937,
  "\u2581playing": 6938,
  "\u2581possibility": 6939,
  "\u2581prophesied": 6940,
  "\u2581quotations": 6941,
  "\u2581recognition": 6942,
  "\u2581rid": 6943,
  "\u2581ringregi": 6944,
  "\u2581rusa": 6945,
  "\u2581science": 6946,
  "\u2581seeming": 6947,
  "\u2581solve": 6948,
  "\u2581steadfast": 6949,
  "\u2581sum": 6950,
  "\u2581thereby": 6951,
  "\u2581unfaithful": 6952,
  "\u2581unselfish": 6953,
  "\u2581wago": 6954,
  "\u2581warmly": 6955,
  "\u2581warn": 6956,
  "\u2581weight": 6957,
  "\u2581wuoyogo": 6958,
  "\u2581yudowa": 6959,
  "doubtedly": 6960,
  "jatichno": 6961,
  "penjri": 6962,
  "seng": 6963,
  "weyo": 6964,
  "\u25811956": 6965,
  "\u258135,": 6966,
  "\u258169": 6967,
  "\u258194": 6968,
  "\u2581Antonio": 6969,
  "\u2581Any": 6970,
  "\u2581Assembly": 6971,
  "\u2581Beduru": 6972,
  "\u2581Besides": 6973,
  "\u2581Continue": 6974,
  "\u2581Dhok": 6975,
  "\u2581Giwa": 6976,
  "\u2581Human": 6977,
  "\u2581Joy": 6978,
  "\u2581Kaachiel": 6979,
  "\u2581Kanisa": 6980,
  "\u2581Mo": 6981,
  "\u2581Mowinjore": 6982,
  "\u2581NO": 6983,
  "\u2581Often": 6984,
  "\u2581PET": 6985,
  "\u2581Power": 6986,
  "\u2581Reading": 6987,
  "\u2581Shepherd": 6988,
  "\u2581Times": 6989,
  "\u2581Wachni": 6990,
  "\u2581Wanyis": 6991,
  "\u2581Whom": 6992,
  "\u2581Yehova": 6993,
  "\u2581admonished": 6994,
  "\u2581adok": 6995,
  "\u2581afford": 6996,
  "\u2581aging": 6997,
  "\u2581bare": 6998,
  "\u2581bas": 6999,
  "\u2581boma": 7000,
  "\u2581boys": 7001,
  "\u2581capacity": 7002,
  "\u2581commercial": 7003,
  "\u2581conform": 7004,
  "\u2581contemplate": 7005,
  "\u2581counted": 7006,
  "\u2581cried": 7007,
  "\u2581deceptive": 7008,
  "\u2581diligently": 7009,
  "\u2581disobey": 7010,
  "\u2581drive": 7011,
  "\u2581dwa": 7012,
  "\u2581empathy": 7013,
  "\u2581execute": 7014,
  "\u2581falling": 7015,
  "\u2581footnote": 7016,
  "\u2581gichak": 7017,
  "\u2581giloko": 7018,
  "\u2581gimakore": 7019,
  "\u2581giseyudo": 7020,
  "\u2581happily": 7021,
  "\u2581implies": 7022,
  "\u2581items": 7023,
  "\u2581joodno": 7024,
  "\u2581keloni": 7025,
  "\u2581kuondego": 7026,
  "\u2581laid": 7027,
  "\u2581lips": 7028,
  "\u2581listed": 7029,
  "\u2581materially": 7030,
  "\u2581mochan": 7031,
  "\u2581modimbore": 7032,
  "\u2581modol": 7033,
  "\u2581molal": 7034,
  "\u2581morally": 7035,
  "\u2581mwahero": 7036,
  "\u2581ngeroni": 7037,
  "\u2581nolamo": 7038,
  "\u2581nonyuolo": 7039,
  "\u2581noreso": 7040,
  "\u2581nyakono": 7041,
  "\u2581nyiewo": 7042,
  "\u2581olor": 7043,
  "\u2581osedhi": 7044,
  "\u2581otony": 7045,
  "\u2581overwhelming": 7046,
  "\u2581permit": 7047,
  "\u2581podho": 7048,
  "\u2581presentation": 7049,
  "\u2581revealing": 7050,
  "\u2581rombene": 7051,
  "\u2581scientists": 7052,
  "\u2581strict": 7053,
  "\u2581strike": 7054,
  "\u2581sunagogi": 7055,
  "\u2581table": 7056,
  "\u2581talked": 7057,
  "\u2581timely": 7058,
  "\u2581topics": 7059,
  "\u2581visions": 7060,
  "\u2581wabolore": 7061,
  "\u2581waketh": 7062,
  "\u2581wasom": 7063,
  "\u2581wengegi": 7064,
  "\u2581yiende": 7065,
  "Mathayo": 7066,
  "eyogo": 7067,
  "\u25812005": 7068,
  "\u2581Abigail": 7069,
  "\u2581CHANGE": 7070,
  "\u2581Christmas": 7071,
  "\u2581Court": 7072,
  "\u2581Dine": 7073,
  "\u2581Egyptians": 7074,
  "\u2581Evening": 7075,
  "\u2581Gehazi": 7076,
  "\u2581Giko": 7077,
  "\u2581Hagar": 7078,
  "\u2581Jabatiso": 7079,
  "\u2581Japuonj": 7080,
  "\u2581Korea": 7081,
  "\u2581Krismas": 7082,
  "\u2581Magog": 7083,
  "\u2581Malachi": 7084,
  "\u2581Ratiro": 7085,
  "\u2581Red": 7086,
  "\u2581River": 7087,
  "\u2581Sunday": 7088,
  "\u2581Ver": 7089,
  "\u2581adult": 7090,
  "\u2581aketo": 7091,
  "\u2581aluor": 7092,
  "\u2581apostate": 7093,
  "\u2581arrives": 7094,
  "\u2581awinj": 7095,
  "\u2581borne": 7096,
  "\u2581brain": 7097,
  "\u2581chierne": 7098,
  "\u2581complex": 7099,
  "\u2581confirm": 7100,
  "\u2581emphasized": 7101,
  "\u2581exercised": 7102,
  "\u2581favorably": 7103,
  "\u2581fighting": 7104,
  "\u2581foremost": 7105,
  "\u2581foretell": 7106,
  "\u2581frequently": 7107,
  "\u2581garment": 7108,
  "\u2581gilamo": 7109,
  "\u2581gilendo": 7110,
  "\u2581gombogi": 7111,
  "\u2581hop": 7112,
  "\u2581isega": 7113,
  "\u2581item": 7114,
  "\u2581iwuoro": 7115,
  "\u2581jamni": 7116,
  "\u2581kal": 7117,
  "\u2581kinds": 7118,
  "\u2581lean": 7119,
  "\u2581map": 7120,
  "\u2581mbala": 7121,
  "\u2581misomo": 7122,
  "\u2581mkate": 7123,
  "\u2581national": 7124,
  "\u2581ngeche": 7125,
  "\u2581nochiero": 7126,
  "\u2581noloyo": 7127,
  "\u2581notimre": 7128,
  "\u2581nowinjore": 7129,
  "\u2581nyadidek": 7130,
  "\u2581nyisa": 7131,
  "\u2581nyosre": 7132,
  "\u2581odiechiengno": 7133,
  "\u2581ol": 7134,
  "\u2581openjre": 7135,
  "\u2581otimnwa": 7136,
  "\u2581outright": 7137,
  "\u2581ponder": 7138,
  "\u2581push": 7139,
  "\u2581rain": 7140,
  "\u2581reasoned": 7141,
  "\u2581repay": 7142,
  "\u2581replace": 7143,
  "\u2581sell": 7144,
  "\u2581shield": 7145,
  "\u2581synagogue": 7146,
  "\u2581teens": 7147,
  "\u2581testimony": 7148,
  "\u2581thrilled": 7149,
  "\u2581tiendene": 7150,
  "\u2581trap": 7151,
  "\u2581tudore": 7152,
  "\u2581tuwono": 7153,
  "\u2581wachiw": 7154,
  "\u2581walls": 7155,
  "\u2581wasetimo": 7156,
  "\u2581weaken": 7157,
  "\u2581weyonwa": 7158,
  "\u2581wuodi": 7159,
  "\u2581yiengni": 7160,
  "Gima": 7161,
  "KA": 7162,
  "netheless": 7163,
  "\u2581116": 7164,
  "\u25811943": 7165,
  "\u2581400": 7166,
  "\u258145,": 7167,
  "\u258199": 7168,
  "\u2581Benin": 7169,
  "\u2581Boaz": 7170,
  "\u2581Gase": 7171,
  "\u2581Giwacho": 7172,
  "\u2581Greece": 7173,
  "\u2581Henry": 7174,
  "\u2581Jachuechwa": 7175,
  "\u2581Jim": 7176,
  "\u2581KA": 7177,
  "\u2581Kora": 7178,
  "\u2581Library": 7179,
  "\u2581MATT": 7180,
  "\u2581Malaika": 7181,
  "\u2581Meal": 7182,
  "\u2581Much": 7183,
  "\u2581Ones": 7184,
  "\u2581Portugal": 7185,
  "\u2581Seeing": 7186,
  "\u2581Singruok": 7187,
  "\u2581Switzerland": 7188,
  "\u2581Years": 7189,
  "\u2581aseyudo": 7190,
  "\u2581average": 7191,
  "\u2581badness": 7192,
  "\u2581baruano": 7193,
  "\u2581catch": 7194,
  "\u2581centered": 7195,
  "\u2581chwechne": 7196,
  "\u2581empire": 7197,
  "\u2581exclusive": 7198,
  "\u2581exemplary": 7199,
  "\u2581expensive": 7200,
  "\u2581favorable": 7201,
  "\u2581happening": 7202,
  "\u2581honesty": 7203,
  "\u2581igolo": 7204,
  "\u2581immortal": 7205,
  "\u2581independence": 7206,
  "\u2581inspiring": 7207,
  "\u2581ipimo": 7208,
  "\u2581iseneno": 7209,
  "\u2581jachan": 7210,
  "\u2581joodu": 7211,
  "\u2581kargi": 7212,
  "\u2581kindene": 7213,
  "\u2581kogeno": 7214,
  "\u2581kotelne": 7215,
  "\u2581lawo": 7216,
  "\u2581level": 7217,
  "\u2581limits": 7218,
  "\u2581lok": 7219,
  "\u2581loud": 7220,
  "\u2581lueti": 7221,
  "\u2581machando": 7222,
  "\u2581misangono": 7223,
  "\u2581miwafu": 7224,
  "\u2581nogero": 7225,
  "\u2581nokonyowa": 7226,
  "\u2581odongo": 7227,
  "\u2581offended": 7228,
  "\u2581osedok": 7229,
  "\u2581oseyiero": 7230,
  "\u2581partake": 7231,
  "\u2581perceive": 7232,
  "\u2581pesago": 7233,
  "\u2581pinjeruodhi": 7234,
  "\u2581prais": 7235,
  "\u2581psalm": 7236,
  "\u2581puonjne": 7237,
  "\u2581reap": 7238,
  "\u2581rebel": 7239,
  "\u2581red": 7240,
  "\u2581respectful": 7241,
  "\u2581schools": 7242,
  "\u2581seated": 7243,
  "\u2581stating": 7244,
  "\u2581succumb": 7245,
  "\u2581supplication": 7246,
  "\u2581thoro": 7247,
  "\u2581tiendeni": 7248,
  "\u2581timone": 7249,
  "\u2581timorenwa": 7250,
  "\u2581tremendous": 7251,
  "\u2581wasepuonjore": 7252,
  "\u2581weapons": 7253,
  "\u2581widespread": 7254,
  "\u2581yorego": 7255,
  "\u2581yude": 7256,
  "Eklesiastes": 7257,
  "OMIYO": 7258,
  "ably": 7259,
  "dwaro": 7260,
  "seed": 7261,
  "\u25811922": 7262,
  "\u25811960": 7263,
  "\u25812.)": 7264,
  "\u25812002": 7265,
  "\u258121.)": 7266,
  "\u258148.": 7267,
  "\u2581Babylonian": 7268,
  "\u2581Chiemb": 7269,
  "\u2581Chuth": 7270,
  "\u2581Gary": 7271,
  "\u2581Had": 7272,
  "\u2581Hero": 7273,
  "\u2581Hope": 7274,
  "\u2581Hosea": 7275,
  "\u2581Isabel": 7276,
  "\u2581JW": 7277,
  "\u2581KAMA": 7278,
  "\u2581Portuguese": 7279,
  "\u2581Put": 7280,
  "\u2581Religion": 7281,
  "\u2581STORY": 7282,
  "\u2581Sanhedrin": 7283,
  "\u2581Siem": 7284,
  "\u2581Steve": 7285,
  "\u2581Wer": 7286,
  "\u2581accident": 7287,
  "\u2581accompani": 7288,
  "\u2581accurately": 7289,
  "\u2581accused": 7290,
  "\u2581achaye": 7291,
  "\u2581achopo": 7292,
  "\u2581aim": 7293,
  "\u2581amazed": 7294,
  "\u2581bengi": 7295,
  "\u2581changing": 7296,
  "\u2581characteristics": 7297,
  "\u2581collect": 7298,
  "\u2581delay": 7299,
  "\u2581desirable": 7300,
  "\u2581discusse": 7301,
  "\u2581distractions": 7302,
  "\u2581engaged": 7303,
  "\u2581expectations": 7304,
  "\u2581giketho": 7305,
  "\u2581gisomo": 7306,
  "\u2581giwuo": 7307,
  "\u2581honesthearted": 7308,
  "\u2581hungry": 7309,
  "\u2581illustrates": 7310,
  "\u2581iluw": 7311,
  "\u2581isebedo": 7312,
  "\u2581jaro": 7313,
  "\u2581jealousy": 7314,
  "\u2581jokinda": 7315,
  "\u2581kawacho": 7316,
  "\u2581kibaji": 7317,
  "\u2581kueth": 7318,
  "\u2581leaves": 7319,
  "\u2581luete": 7320,
  "\u2581maoko": 7321,
  "\u2581masirano": 7322,
  "\u2581meantime": 7323,
  "\u2581missed": 7324,
  "\u2581mit": 7325,
  "\u2581momni": 7326,
  "\u2581moneno": 7327,
  "\u2581mori": 7328,
  "\u2581mwandugi": 7329,
  "\u2581nadi": 7330,
  "\u2581ngamia": 7331,
  "\u2581nochier": 7332,
  "\u2581norum": 7333,
  "\u2581nowuoro": 7334,
  "\u2581nyalogi": 7335,
  "\u2581occurs": 7336,
  "\u2581oheri": 7337,
  "\u2581parogo": 7338,
  "\u2581perspective": 7339,
  "\u2581polis": 7340,
  "\u2581population": 7341,
  "\u2581price": 7342,
  "\u2581proclaimed": 7343,
  "\u2581produces": 7344,
  "\u2581protects": 7345,
  "\u2581puoth": 7346,
  "\u2581rapar": 7347,
  "\u2581recalled": 7348,
  "\u2581refrain": 7349,
  "\u2581respects": 7350,
  "\u2581ridicule": 7351,
  "\u2581rum": 7352,
  "\u2581soil": 7353,
  "\u2581somewhat": 7354,
  "\u2581steward": 7355,
  "\u2581stones": 7356,
  "\u2581strange": 7357,
  "\u2581sufficient": 7358,
  "\u2581suitable": 7359,
  "\u2581territories": 7360,
  "\u2581thumbe": 7361,
  "\u2581twagno": 7362,
  "\u2581unrepentant": 7363,
  "\u2581vigilant": 7364,
  "\u2581vivid": 7365,
  "\u2581wanyag": 7366,
  "\u2581warwak": 7367,
  "\u2581wasigu": 7368,
  "\u2581wood": 7369,
  "\u2581yeah": 7370,
  "B": 7371,
  "Come": 7372,
  "ES": 7373,
  "Mond": 7374,
  "Now": 7375,
  "kedo": 7376,
  "ncient": 7377,
  "skul": 7378,
  "son": 7379,
  "\u25811952": 7380,
  "\u2581Antioch": 7381,
  "\u2581Archives": 7382,
  "\u2581Chopo": 7383,
  "\u2581Describe": 7384,
  "\u2581Elizabeth": 7385,
  "\u2581Emlyn": 7386,
  "\u2581GIK": 7387,
  "\u2581History": 7388,
  "\u2581Jonah": 7389,
  "\u2581Jos\u00e9": 7390,
  "\u2581Judges": 7391,
  "\u2581Linda": 7392,
  "\u2581Line": 7393,
  "\u2581Madagascar": 7394,
  "\u2581Nyasachgi": 7395,
  "\u2581Republic": 7396,
  "\u2581Rwak": 7397,
  "\u2581Servant": 7398,
  "\u2581Serve": 7399,
  "\u2581Truly": 7400,
  "\u2581West": 7401,
  "\u2581adults": 7402,
  "\u2581afflicted": 7403,
  "\u2581appoint": 7404,
  "\u2581atin": 7405,
  "\u2581bears": 7406,
  "\u2581bought": 7407,
  "\u2581check": 7408,
  "\u2581chocho": 7409,
  "\u2581conflicts": 7410,
  "\u2581discouragement": 7411,
  "\u2581drama": 7412,
  "\u2581drop": 7413,
  "\u2581ear": 7414,
  "\u2581ease": 7415,
  "\u2581emphasis": 7416,
  "\u2581ensure": 7417,
  "\u2581facilities": 7418,
  "\u2581farese": 7419,
  "\u2581feared": 7420,
  "\u2581generously": 7421,
  "\u2581gindiko": 7422,
  "\u2581girls": 7423,
  "\u2581grows": 7424,
  "\u2581happier": 7425,
  "\u2581heartwarming": 7426,
  "\u2581historian": 7427,
  "\u2581ilero": 7428,
  "\u2581improper": 7429,
  "\u2581ipuonjri": 7430,
  "\u2581kete": 7431,
  "\u2581leaven": 7432,
  "\u2581makamago": 7433,
  "\u2581maradier": 7434,
  "\u2581miyono": 7435,
  "\u2581mochiwo": 7436,
  "\u2581moon": 7437,
  "\u2581neglect": 7438,
  "\u2581nochango": 7439,
  "\u2581nojiwe": 7440,
  "\u2581nopenje": 7441,
  "\u2581nosetimo": 7442,
  "\u2581nyangu": 7443,
  "\u2581nyowuoyo": 7444,
  "\u2581nyukta": 7445,
  "\u2581obwongo": 7446,
  "\u2581ochiwre": 7447,
  "\u2581odagi": 7448,
  "\u2581offerings": 7449,
  "\u2581oherowago": 7450,
  "\u2581olando": 7451,
  "\u2581olend": 7452,
  "\u2581online": 7453,
  "\u2581oriwore": 7454,
  "\u2581osepuonjore": 7455,
  "\u2581osesingo": 7456,
  "\u2581parallel": 7457,
  "\u2581pinywa": 7458,
  "\u2581post": 7459,
  "\u2581proclaiming": 7460,
  "\u2581productive": 7461,
  "\u2581prospects": 7462,
  "\u2581puonjni": 7463,
  "\u2581rare": 7464,
  "\u2581reminder": 7465,
  "\u2581requests": 7466,
  "\u2581resentment": 7467,
  "\u2581rob": 7468,
  "\u2581rombo": 7469,
  "\u2581rwakruok": 7470,
  "\u2581siblings": 7471,
  "\u2581sides": 7472,
  "\u2581similarly": 7473,
  "\u2581singono": 7474,
  "\u2581stands": 7475,
  "\u2581tragic": 7476,
  "\u2581transformed": 7477,
  "\u2581tunge": 7478,
  "\u2581unbelievers": 7479,
  "\u2581uneno": 7480,
  "\u2581video": 7481,
  "\u2581virgin": 7482,
  "\u2581virgins": 7483,
  "\u2581wath": 7484,
  "\u2581worshipp": 7485,
  "\u2581worthless": 7486,
  "\u2581wuone": 7487,
  "\u2581yiene": 7488,
  "ANE": 7489,
  "Ahero": 7490,
  "either": 7491,
  "el": 7492,
  "iew": 7493,
  "kwongo": 7494,
  "lemo": 7495,
  "mich": 7496,
  "onego": 7497,
  "oting": 7498,
  "wachonwa": 7499,
  "\u2581118": 7500,
  "\u258158.": 7501,
  "\u258163": 7502,
  "\u2581Accordingly": 7503,
  "\u2581Al": 7504,
  "\u2581Anointed": 7505,
  "\u2581Canaan": 7506,
  "\u2581Certainly": 7507,
  "\u2581Chunya": 7508,
  "\u2581Ezek": 7509,
  "\u2581Filistia": 7510,
  "\u2581Greater": 7511,
  "\u2581Happiness": 7512,
  "\u2581Head": 7513,
  "\u2581Jael": 7514,
  "\u2581Jolendo": 7515,
  "\u2581Kind": 7516,
  "\u2581Language": 7517,
  "\u2581Lessons": 7518,
  "\u2581Likely": 7519,
  "\u2581Mangima": 7520,
  "\u2581Mom": 7521,
  "\u2581Mwayudo": 7522,
  "\u2581OR": 7523,
  "\u2581Pinje": 7524,
  "\u2581SIGAND": 7525,
  "\u2581Siki": 7526,
  "\u2581TEACHINGS": 7527,
  "\u2581Third": 7528,
  "\u2581Wabedo": 7529,
  "\u2581YESU": 7530,
  "\u2581Yor": 7531,
  "\u2581advanced": 7532,
  "\u2581akawo": 7533,
  "\u2581apara": 7534,
  "\u2581backgrounds": 7535,
  "\u2581buru": 7536,
  "\u2581card": 7537,
  "\u2581criminal": 7538,
  "\u2581dhiye": 7539,
  "\u2581doctrines": 7540,
  "\u2581enjoyable": 7541,
  "\u2581fift": 7542,
  "\u2581foreigners": 7543,
  "\u2581hit": 7544,
  "\u2581hunger": 7545,
  "\u2581idho": 7546,
  "\u2581ise": 7547,
  "\u2581japainia": 7548,
  "\u2581katiyo": 7549,
  "\u2581kue": 7550,
  "\u2581kwongo": 7551,
  "\u2581lich": 7552,
  "\u2581lift": 7553,
  "\u2581loye": 7554,
  "\u2581mesa": 7555,
  "\u2581molworo": 7556,
  "\u2581morgo": 7557,
  "\u2581mosetimo": 7558,
  "\u2581namely": 7559,
  "\u2581noromogo": 7560,
  "\u2581ogony": 7561,
  "\u2581ohera": 7562,
  "\u2581onyuola": 7563,
  "\u2581onyuole": 7564,
  "\u2581openje": 7565,
  "\u2581operation": 7566,
  "\u2581opog": 7567,
  "\u2581osechiwo": 7568,
  "\u2581osemedore": 7569,
  "\u2581osingonwa": 7570,
  "\u2581otel": 7571,
  "\u2581otere": 7572,
  "\u2581overlook": 7573,
  "\u2581padri": 7574,
  "\u2581petitions": 7575,
  "\u2581promoted": 7576,
  "\u2581radio": 7577,
  "\u2581rango": 7578,
  "\u2581reassuring": 7579,
  "\u2581rebelled": 7580,
  "\u2581rebellious": 7581,
  "\u2581rembe": 7582,
  "\u2581representatives": 7583,
  "\u2581scroll": 7584,
  "\u2581sensitive": 7585,
  "\u2581soldier": 7586,
  "\u2581sower": 7587,
  "\u2581stage": 7588,
  "\u2581submission": 7589,
  "\u2581suya": 7590,
  "\u2581tedo": 7591,
  "\u2581tik": 7592,
  "\u2581timbego": 7593,
  "\u2581timgi": 7594,
  "\u2581timing": 7595,
  "\u2581vain": 7596,
  "\u2581wadewo": 7597,
  "\u2581wage": 7598,
  "\u2581winjre": 7599,
  "Pinyruodh": 7600,
  "da": 7601,
  "ena": 7602,
  "eno": 7603,
  "kinde": 7604,
  "ry": 7605,
  "tieko": 7606,
  "ula": 7607,
  "winjo": 7608,
  "\u258111.)": 7609,
  "\u25811968": 7610,
  "\u258130)": 7611,
  "\u25815]": 7612,
  "\u2581700": 7613,
  "\u258195": 7614,
  "\u2581Benefit": 7615,
  "\u2581Branch": 7616,
  "\u2581CHON": 7617,
  "\u2581Care": 7618,
  "\u2581Giving": 7619,
  "\u2581Hol": 7620,
  "\u2581Josomo": 7621,
  "\u2581KINDE": 7622,
  "\u2581Last": 7623,
  "\u2581Lead": 7624,
  "\u2581Looking": 7625,
  "\u2581Mane": 7626,
  "\u2581Nero": 7627,
  "\u2581Noketo": 7628,
  "\u2581Nothing": 7629,
  "\u2581Old": 7630,
  "\u2581Paris": 7631,
  "\u2581Pu": 7632,
  "\u2581TEM": 7633,
  "\u2581Tak": 7634,
  "\u2581Tony": 7635,
  "\u2581adjusted": 7636,
  "\u2581annual": 7637,
  "\u2581bilion": 7638,
  "\u2581buono": 7639,
  "\u2581capital": 7640,
  "\u2581childhood": 7641,
  "\u2581chokruogego": 7642,
  "\u2581conquer": 7643,
  "\u2581correspond": 7644,
  "\u2581creative": 7645,
  "\u2581crown": 7646,
  "\u2581declaration": 7647,
  "\u2581denda": 7648,
  "\u2581difficulty": 7649,
  "\u2581dire": 7650,
  "\u2581distributed": 7651,
  "\u2581freed": 7652,
  "\u2581gidewo": 7653,
  "\u2581giloso": 7654,
  "\u2581herano": 7655,
  "\u2581identifie": 7656,
  "\u2581incident": 7657,
  "\u2581inono": 7658,
  "\u2581interfere": 7659,
  "\u2581isando": 7660,
  "\u2581jandiko": 7661,
  "\u2581jaratiro": 7662,
  "\u2581jatichne": 7663,
  "\u2581jomwandu": 7664,
  "\u2581judicia": 7665,
  "\u2581kad": 7666,
  "\u2581kalatese": 7667,
  "\u2581keen": 7668,
  "\u2581kombe": 7669,
  "\u2581kowo": 7670,
  "\u2581lworo": 7671,
  "\u2581miketo": 7672,
  "\u2581mogol": 7673,
  "\u2581nabedo": 7674,
  "\u2581nahero": 7675,
  "\u2581nodakie": 7676,
  "\u2581nojiwa": 7677,
  "\u2581nyimi": 7678,
  "\u2581object": 7679,
  "\u2581onegi": 7680,
  "\u2581onyuolo": 7681,
  "\u2581opens": 7682,
  "\u2581oreso": 7683,
  "\u2581origin": 7684,
  "\u2581outcry": 7685,
  "\u2581oyiene": 7686,
  "\u2581pando": 7687,
  "\u2581party": 7688,
  "\u2581penj": 7689,
  "\u2581pick": 7690,
  "\u2581polise": 7691,
  "\u2581prefer": 7692,
  "\u2581qualifications": 7693,
  "\u2581refugees": 7694,
  "\u2581sat": 7695,
  "\u2581scale": 7696,
  "\u2581selfishness": 7697,
  "\u2581shame": 7698,
  "\u2581shape": 7699,
  "\u2581ship": 7700,
  "\u2581sigendni": 7701,
  "\u2581sow": 7702,
  "\u2581tekna": 7703,
  "\u2581theme": 7704,
  "\u2581thothne": 7705,
  "\u2581treacherous": 7706,
  "\u2581waikre": 7707,
  "\u2581waland": 7708,
  "\u2581womb": 7709,
  "ANIE": 7710,
  "Bedo": 7711,
  "Di": 7712,
  "Joha": 7713,
  "LY": 7714,
  "Ritreuru": 7715,
  "nego": 7716,
  "onyiso": 7717,
  "rew": 7718,
  "terogi": 7719,
  "there": 7720,
  "\u25811949": 7721,
  "\u25811953": 7722,
  "\u25811974": 7723,
  "\u2581ABOUT": 7724,
  "\u2581Alice": 7725,
  "\u2581Apply": 7726,
  "\u2581Giver": 7727,
  "\u2581Korah": 7728,
  "\u2581Kornelio": 7729,
  "\u2581Ku": 7730,
  "\u2581Nochako": 7731,
  "\u2581Pog": 7732,
  "\u2581Sila": 7733,
  "\u2581Thothgi": 7734,
  "\u2581Yaye": 7735,
  "\u2581abi": 7736,
  "\u2581ageno": 7737,
  "\u2581andhoga": 7738,
  "\u2581apostasy": 7739,
  "\u2581attracted": 7740,
  "\u2581black": 7741,
  "\u2581captive": 7742,
  "\u2581chungo": 7743,
  "\u2581combined": 7744,
  "\u2581composed": 7745,
  "\u2581conquered": 7746,
  "\u2581consist": 7747,
  "\u2581deed": 7748,
  "\u2581detailed": 7749,
  "\u2581disastrous": 7750,
  "\u2581disposed": 7751,
  "\u2581donj": 7752,
  "\u2581dread": 7753,
  "\u2581driver": 7754,
  "\u2581elsewhere": 7755,
  "\u2581endless": 7756,
  "\u2581enthusiasm": 7757,
  "\u2581envy": 7758,
  "\u2581exhortation": 7759,
  "\u2581extensive": 7760,
  "\u2581farm": 7761,
  "\u2581flow": 7762,
  "\u2581follows": 7763,
  "\u2581genogi": 7764,
  "\u2581gichiwore": 7765,
  "\u2581giland": 7766,
  "\u2581gross": 7767,
  "\u2581honestly": 7768,
  "\u2581japur": 7769,
  "\u2581kindi": 7770,
  "\u2581kokwayo": 7771,
  "\u2581lifetime": 7772,
  "\u2581longing": 7773,
  "\u2581lum": 7774,
  "\u2581makawo": 7775,
  "\u2581marichogo": 7776,
  "\u2581matemo": 7777,
  "\u2581mbese": 7778,
  "\u2581measures": 7779,
  "\u2581modwanyore": 7780,
  "\u2581moments": 7781,
  "\u2581momiyowa": 7782,
  "\u2581mwapuonjore": 7783,
  "\u2581mwasomo": 7784,
  "\u2581nduru": 7785,
  "\u2581nokwong": 7786,
  "\u2581nonyisowa": 7787,
  "\u2581notero": 7788,
  "\u2581ochomo": 7789,
  "\u2581ochopi": 7790,
  "\u2581odi": 7791,
  "\u2581okal": 7792,
  "\u2581olemb": 7793,
  "\u2581olwar": 7794,
  "\u2581onyos": 7795,
  "\u2581opogre": 7796,
  "\u2581orie": 7797,
  "\u2581oseloki": 7798,
  "\u2581otwe": 7799,
  "\u2581participat": 7800,
  "\u2581prayerfully": 7801,
  "\u2581producing": 7802,
  "\u2581r": 7803,
  "\u2581repair": 7804,
  "\u2581richly": 7805,
  "\u2581sacrifici": 7806,
  "\u2581sanduku": 7807,
  "\u2581scrolls": 7808,
  "\u2581sites": 7809,
  "\u2581sole": 7810,
  "\u2581southern": 7811,
  "\u2581speaker": 7812,
  "\u2581spiritism": 7813,
  "\u2581steal": 7814,
  "\u2581struggled": 7815,
  "\u2581submissive": 7816,
  "\u2581surrounding": 7817,
  "\u2581tabernakel": 7818,
  "\u2581thinks": 7819,
  "\u2581thuoloni": 7820,
  "\u2581tiji": 7821,
  "\u2581truthful": 7822,
  "\u2581umo": 7823,
  "\u2581unwise": 7824,
  "\u2581ye": 7825,
  "Ee": 7826,
  "IGIN": 7827,
  "Mal": 7828,
  "Yaye": 7829,
  "chik": 7830,
  "ial": 7831,
  "kwedo": 7832,
  "put": 7833,
  "sefwenyo": 7834,
  "tries": 7835,
  "use": 7836,
  "\u2581115": 7837,
  "\u2581Bethelites": 7838,
  "\u2581Chikno": 7839,
  "\u2581Chunywa": 7840,
  "\u2581Eduardo": 7841,
  "\u2581End": 7842,
  "\u2581Evelyn": 7843,
  "\u2581Guide": 7844,
  "\u2581HAVE": 7845,
  "\u2581HISTORY": 7846,
  "\u2581Italia": 7847,
  "\u2581JE": 7848,
  "\u2581Jatelo": 7849,
  "\u2581Jobura": 7850,
  "\u2581Jonenogo": 7851,
  "\u2581MY": 7852,
  "\u2581Mabeyo": 7853,
  "\u2581Motegno": 7854,
  "\u2581Neuru": 7855,
  "\u2581Ngimana": 7856,
  "\u2581Nyathi": 7857,
  "\u2581Ogendini": 7858,
  "\u2581Ogoye": 7859,
  "\u2581Philistines": 7860,
  "\u2581Preach": 7861,
  "\u2581Rule": 7862,
  "\u2581Sin": 7863,
  "\u2581Teaching": 7864,
  "\u2581Wechegi": 7865,
  "\u2581Wise": 7866,
  "\u2581absolutely": 7867,
  "\u2581admitted": 7868,
  "\u2581ages": 7869,
  "\u2581apartment": 7870,
  "\u2581apostates": 7871,
  "\u2581awuoyo": 7872,
  "\u2581ayany": 7873,
  "\u2581ban": 7874,
  "\u2581begun": 7875,
  "\u2581behave": 7876,
  "\u2581believes": 7877,
  "\u2581beside": 7878,
  "\u2581branches": 7879,
  "\u2581chanda": 7880,
  "\u2581chaste": 7881,
  "\u2581civil": 7882,
  "\u2581commend": 7883,
  "\u2581devastated": 7884,
  "\u2581disregard": 7885,
  "\u2581entie": 7886,
  "\u2581formerly": 7887,
  "\u2581forsake": 7888,
  "\u2581fwenyonwa": 7889,
  "\u2581hoho": 7890,
  "\u2581hopes": 7891,
  "\u2581iikori": 7892,
  "\u2581indicat": 7893,
  "\u2581iru": 7894,
  "\u2581iweyo": 7895,
  "\u2581jaoteno": 7896,
  "\u2581jobs": 7897,
  "\u2581kamachielo": 7898,
  "\u2581kodhino": 7899,
  "\u2581kwar": 7900,
  "\u2581lacking": 7901,
  "\u2581lifesaving": 7902,
  "\u2581loka": 7903,
  "\u2581mothers": 7904,
  "\u2581mwandune": 7905,
  "\u2581naparo": 7906,
  "\u2581ndhadhu": 7907,
  "\u2581nojiwogi": 7908,
  "\u2581nojiwowa": 7909,
  "\u2581okuwe": 7910,
  "\u2581okwero": 7911,
  "\u2581olocho": 7912,
  "\u2581omedre": 7913,
  "\u2581orieny": 7914,
  "\u2581otiyogo": 7915,
  "\u2581paths": 7916,
  "\u2581pieces": 7917,
  "\u2581press": 7918,
  "\u2581previous": 7919,
  "\u2581prisoners": 7920,
  "\u2581progressed": 7921,
  "\u2581prosperity": 7922,
  "\u2581puonja": 7923,
  "\u2581questioned": 7924,
  "\u2581recommended": 7925,
  "\u2581richono": 7926,
  "\u2581ringrene": 7927,
  "\u2581river": 7928,
  "\u2581singone": 7929,
  "\u2581sulano": 7930,
  "\u2581television": 7931,
  "\u2581thoroughly": 7932,
  "\u2581tongues": 7933,
  "\u2581transferred": 7934,
  "\u2581unnecessary": 7935,
  "\u2581unscriptural": 7936,
  "\u2581wakedo": 7937,
  "\u2581walos": 7938,
  "\u2581wealthy": 7939,
  "\u2581website": 7940,
  "\u2581weighty": 7941,
  "\u2581worthwhile": 7942,
  "\u2581yier": 7943,
  "\u2581yudogi": 7944,
  "\u2581yudoree": 7945,
  "GI": 7946,
  "Mika": 7947,
  "Our": 7948,
  "R": 7949,
  "SUS": 7950,
  "ctively": 7951,
  "giko": 7952,
  "ism": 7953,
  "jatich": 7954,
  "rs": 7955,
  "sol": 7956,
  "this": 7957,
  "time": 7958,
  "wali": 7959,
  "yudore": 7960,
  "\u25811948": 7961,
  "\u25813]": 7962,
  "\u258172": 7963,
  "\u258198": 7964,
  "\u2581Actually": 7965,
  "\u2581COUN": 7966,
  "\u2581Carol": 7967,
  "\u2581Consequently": 7968,
  "\u2581Cornelius": 7969,
  "\u2581Department": 7970,
  "\u2581Eze": 7971,
  "\u2581GIN": 7972,
  "\u2581Gayo": 7973,
  "\u2581Happily": 7974,
  "\u2581Ho": 7975,
  "\u2581Honor": 7976,
  "\u2581Jenny": 7977,
  "\u2581Jorit": 7978,
  "\u2581Kitabu": 7979,
  "\u2581Listen": 7980,
  "\u2581Mesopotamia": 7981,
  "\u2581Millions": 7982,
  "\u2581Mos": 7983,
  "\u2581Naaman": 7984,
  "\u2581Pacific": 7985,
  "\u2581Rico": 7986,
  "\u2581Siko": 7987,
  "\u2581Tuvalu": 7988,
  "\u2581Volume": 7989,
  "\u2581Worldwide": 7990,
  "\u2581adonjo": 7991,
  "\u2581askeche": 7992,
  "\u2581ate": 7993,
  "\u2581auxiliary": 7994,
  "\u2581ayiea": 7995,
  "\u2581broad": 7996,
  "\u2581cleansing": 7997,
  "\u2581contributions": 7998,
  "\u2581cooperation": 7999,
  "\u2581corrected": 8000,
  "\u2581deceive": 8001,
  "\u2581despair": 8002,
  "\u2581destination": 8003,
  "\u2581dishonest": 8004,
  "\u2581donor": 8005,
  "\u2581expresse": 8006,
  "\u2581fails": 8007,
  "\u2581fault": 8008,
  "\u2581feeding": 8009,
  "\u2581firsthand": 8010,
  "\u2581flood": 8011,
  "\u2581fun": 8012,
  "\u2581funeral": 8013,
  "\u2581gago": 8014,
  "\u2581gigolo": 8015,
  "\u2581gilemo": 8016,
  "\u2581glorified": 8017,
  "\u2581guests": 8018,
  "\u2581guides": 8019,
  "\u2581gwel": 8020,
  "\u2581hypocritical": 8021,
  "\u2581igol": 8022,
  "\u2581ikaw": 8023,
  "\u2581iloso": 8024,
  "\u2581introduced": 8025,
  "\u2581irito": 8026,
  "\u2581ita": 8027,
  "\u2581jing": 8028,
  "\u2581joga": 8029,
  "\u2581jolok": 8030,
  "\u2581kopi": 8031,
  "\u2581koracham": 8032,
  "\u2581korito": 8033,
  "\u2581leronwa": 8034,
  "\u2581machalre": 8035,
  "\u2581madhako": 8036,
  "\u2581maiye": 8037,
  "\u2581march": 8038,
  "\u2581marito": 8039,
  "\u2581marriages": 8040,
  "\u2581moluore": 8041,
  "\u2581mondi": 8042,
  "\u2581ndalono": 8043,
  "\u2581nderni": 8044,
  "\u2581nokedo": 8045,
  "\u2581noora": 8046,
  "\u2581nyathigi": 8047,
  "\u2581nyiminego": 8048,
  "\u2581ochwanyowa": 8049,
  "\u2581offense": 8050,
  "\u2581oluongo": 8051,
  "\u2581omonwa": 8052,
  "\u2581oniang": 8053,
  "\u2581osechiwore": 8054,
  "\u2581outward": 8055,
  "\u2581phrase": 8056,
  "\u2581pinjegi": 8057,
  "\u2581plain": 8058,
  "\u2581preacher": 8059,
  "\u2581purposed": 8060,
  "\u2581recover": 8061,
  "\u2581repented": 8062,
  "\u2581resort": 8063,
  "\u2581schoolmates": 8064,
  "\u2581sirkand": 8065,
  "\u2581storm": 8066,
  "\u2581strayed": 8067,
  "\u2581stumbled": 8068,
  "\u2581submitt": 8069,
  "\u2581traditions": 8070,
  "\u2581unite": 8071,
  "\u2581wachone": 8072,
  "\u2581walendonegi": 8073,
  "\u2581waol": 8074,
  "\u2581yunivasiti": 8075,
  "5": 8076,
  "HN": 8077,
  "KE": 8078,
  "Kendo": 8079,
  "Kristo": 8080,
  "RE": 8081,
  "Wa": 8082,
  "born": 8083,
  "dia": 8084,
  "ical": 8085,
  "id": 8086,
  "kaka": 8087,
  "keto": 8088,
  "kuom": 8089,
  "nt": 8090,
  "nyoso": 8091,
  "\u2581136": 8092,
  "\u258113]": 8093,
  "\u25811931": 8094,
  "\u25811976": 8095,
  "\u25811976.": 8096,
  "\u25811994": 8097,
  "\u258133)": 8098,
  "\u2581Answers": 8099,
  "\u2581Asuria": 8100,
  "\u2581Chu": 8101,
  "\u2581Everyone": 8102,
  "\u2581Gehenna": 8103,
  "\u2581JUMA": 8104,
  "\u2581Joha": 8105,
  "\u2581Kong": 8106,
  "\u2581La": 8107,
  "\u2581Loving": 8108,
  "\u2581Lystra": 8109,
  "\u2581MAMOKO": 8110,
  "\u2581Makedonia": 8111,
  "\u2581Organization": 8112,
  "\u2581Please": 8113,
  "\u2581Provider": 8114,
  "\u2581Rahel": 8115,
  "\u2581Ri": 8116,
  "\u2581Ro": 8117,
  "\u2581Sabato": 8118,
  "\u2581Samaritan": 8119,
  "\u2581Suppose": 8120,
  "\u2581TIM": 8121,
  "\u2581Thessalonica": 8122,
  "\u2581WHY": 8123,
  "\u2581Wayudo": 8124,
  "\u2581Yot": 8125,
  "\u2581achak": 8126,
  "\u2581adongo": 8127,
  "\u2581anyiso": 8128,
  "\u2581awaiting": 8129,
  "\u2581awaken": 8130,
  "\u2581bedie": 8131,
  "\u2581boldly": 8132,
  "\u2581bright": 8133,
  "\u2581c": 8134,
  "\u2581caution": 8135,
  "\u2581cease": 8136,
  "\u2581characters": 8137,
  "\u2581conquest": 8138,
  "\u2581contentment": 8139,
  "\u2581covering": 8140,
  "\u2581dhoho": 8141,
  "\u2581discourse": 8142,
  "\u2581disobedient": 8143,
  "\u2581distinct": 8144,
  "\u2581doher": 8145,
  "\u2581drift": 8146,
  "\u2581embrace": 8147,
  "\u2581enjoyment": 8148,
  "\u2581ethnic": 8149,
  "\u2581famine": 8150,
  "\u2581favored": 8151,
  "\u2581fom": 8152,
  "\u2581fore": 8153,
  "\u2581format": 8154,
  "\u2581gisetimo": 8155,
  "\u2581govern": 8156,
  "\u2581greeting": 8157,
  "\u2581homeland": 8158,
  "\u2581ignored": 8159,
  "\u2581imiye": 8160,
  "\u2581inclination": 8161,
  "\u2581injury": 8162,
  "\u2581iwa": 8163,
  "\u2581kadhi": 8164,
  "\u2581komiti": 8165,
  "\u2581mandalogi": 8166,
  "\u2581media": 8167,
  "\u2581memorial": 8168,
  "\u2581miel": 8169,
  "\u2581misled": 8170,
  "\u2581naturally": 8171,
  "\u2581neutral": 8172,
  "\u2581newspaper": 8173,
  "\u2581ngimau": 8174,
  "\u2581nokelone": 8175,
  "\u2581nolimo": 8176,
  "\u2581noramo": 8177,
  "\u2581nyandwat": 8178,
  "\u2581ocham": 8179,
  "\u2581okedo": 8180,
  "\u2581okwan": 8181,
  "\u2581omake": 8182,
  "\u2581ordinary": 8183,
  "\u2581oterore": 8184,
  "\u2581otur": 8185,
  "\u2581oversight": 8186,
  "\u2581owner": 8187,
  "\u2581permission": 8188,
  "\u2581por": 8189,
  "\u2581portions": 8190,
  "\u2581prevented": 8191,
  "\u2581puonjgi": 8192,
  "\u2581repeat": 8193,
  "\u2581researchers": 8194,
  "\u2581respectfully": 8195,
  "\u2581respecting": 8196,
  "\u2581ripode": 8197,
  "\u2581roll": 8198,
  "\u2581roof": 8199,
  "\u2581saving": 8200,
  "\u2581shift": 8201,
  "\u2581silent": 8202,
  "\u2581standpoint": 8203,
  "\u2581star": 8204,
  "\u2581stretch": 8205,
  "\u2581tamo": 8206,
  "\u2581tekni": 8207,
  "\u2581thung": 8208,
  "\u2581trace": 8209,
  "\u2581translators": 8210,
  "\u2581undo": 8211,
  "\u2581vows": 8212,
  "\u2581wakwongo": 8213,
  "\u2581wanting": 8214,
  "\u2581wawuok": 8215,
  "\u2581wecheni": 8216,
  "\u2581wuoye": 8217,
  "\u2581yeartext": 8218,
  ",000,000": 8219,
  "Adier": 8220,
  "Christ": 8221,
  "aze": 8222,
  "che": 8223,
  "definitely": 8224,
  "dhi": 8225,
  "enygi": 8226,
  "hawo": 8227,
  "ini": 8228,
  "love": 8229,
  "mana": 8230,
  "new": 8231,
  "of": 8232,
  "ory": 8233,
  "pe": 8234,
  "ted": 8235,
  "ut": 8236,
  "ward": 8237,
  "while": 8238,
  "\u25811941": 8239,
  "\u25811946": 8240,
  "\u25811970": 8241,
  "\u25811980": 8242,
  "\u258143,": 8243,
  "\u258158": 8244,
  "\u258177": 8245,
  "\u25818]": 8246,
  "\u2581Ase": 8247,
  "\u2581Barr": 8248,
  "\u2581Brit": 8249,
  "\u2581Chal": 8250,
  "\u2581Chinese": 8251,
  "\u2581Creation": 8252,
  "\u2581Days": 8253,
  "\u2581Edition": 8254,
  "\u2581European": 8255,
  "\u2581Fin": 8256,
  "\u2581Franz": 8257,
  "\u2581Jatichno": 8258,
  "\u2581Kingsley": 8259,
  "\u2581LIVE": 8260,
  "\u2581Luoro": 8261,
  "\u2581Mbaka": 8262,
  "\u2581Men": 8263,
  "\u2581Num": 8264,
  "\u2581Nyithindi": 8265,
  "\u2581Odhiambo": 8266,
  "\u2581PAR": 8267,
  "\u2581Paolo": 8268,
  "\u2581Pek": 8269,
  "\u2581Pim": 8270,
  "\u2581Profesa": 8271,
  "\u2581Rawar": 8272,
  "\u2581Relate": 8273,
  "\u2581Ryan": 8274,
  "\u2581Silas": 8275,
  "\u2581Simeon": 8276,
  "\u2581Understandabl": 8277,
  "\u2581Weyo": 8278,
  "\u2581accomplishing": 8279,
  "\u2581ae": 8280,
  "\u2581aling": 8281,
  "\u2581alworagi": 8282,
  "\u2581anami": 8283,
  "\u2581answering": 8284,
  "\u2581appreciative": 8285,
  "\u2581argue": 8286,
  "\u2581arriving": 8287,
  "\u2581assembled": 8288,
  "\u2581attempted": 8289,
  "\u2581attractive": 8290,
  "\u2581b": 8291,
  "\u2581bwok": 8292,
  "\u2581challenged": 8293,
  "\u2581chikogi": 8294,
  "\u2581chomo": 8295,
  "\u2581chooses": 8296,
  "\u2581concentrate": 8297,
  "\u2581deliberately": 8298,
  "\u2581dies": 8299,
  "\u2581expose": 8300,
  "\u2581gipuonj": 8301,
  "\u2581giriwo": 8302,
  "\u2581gisiko": 8303,
  "\u2581honors": 8304,
  "\u2581host": 8305,
  "\u2581igombo": 8306,
  "\u2581ijiwo": 8307,
  "\u2581iyi": 8308,
  "\u2581jowasike": 8309,
  "\u2581keenly": 8310,
  "\u2581loje": 8311,
  "\u2581lwanda": 8312,
  "\u2581match": 8313,
  "\u2581materialism": 8314,
  "\u2581mawinjore": 8315,
  "\u2581messages": 8316,
  "\u2581metho": 8317,
  "\u2581mihero": 8318,
  "\u2581milionde": 8319,
  "\u2581mirimb": 8320,
  "\u2581moni": 8321,
  "\u2581mowuo": 8322,
  "\u2581moyudo": 8323,
  "\u2581muche": 8324,
  "\u2581nanga": 8325,
  "\u2581ndiga": 8326,
  "\u2581nenowa": 8327,
  "\u2581notelo": 8328,
  "\u2581noteworthy": 8329,
  "\u2581nowil": 8330,
  "\u2581numbers": 8331,
  "\u2581oath": 8332,
  "\u2581ochike": 8333,
  "\u2581ochokore": 8334,
  "\u2581ochue": 8335,
  "\u2581okendi": 8336,
  "\u2581okonyogi": 8337,
  "\u2581onwang": 8338,
  "\u2581organizations": 8339,
  "\u2581otayo": 8340,
  "\u2581planned": 8341,
  "\u2581programs": 8342,
  "\u2581pwodho": 8343,
  "\u2581recogniz": 8344,
  "\u2581references": 8345,
  "\u2581rightful": 8346,
  "\u2581secretary": 8347,
  "\u2581sharp": 8348,
  "\u2581simu": 8349,
  "\u2581size": 8350,
  "\u2581skilled": 8351,
  "\u2581sleeping": 8352,
  "\u2581soko": 8353,
  "\u2581somehow": 8354,
  "\u2581sorry": 8355,
  "\u2581souled": 8356,
  "\u2581splendor": 8357,
  "\u2581spring": 8358,
  "\u2581ta": 8359,
  "\u2581tayowago": 8360,
  "\u2581timonegi": 8361,
  "\u2581torment": 8362,
  "\u2581towns": 8363,
  "\u2581undermine": 8364,
  "\u2581unknown": 8365,
  "\u2581vicious": 8366,
  "\u2581violate": 8367,
  "\u2581wadar": 8368,
  "\u2581waited": 8369,
  "\u2581wanano": 8370,
  "4": 8371,
  "4)": 8372,
  "Lord": 8373,
  "Neh": 8374,
  "Neuru": 8375,
  "Nyasach": 8376,
  "Tim": 8377,
  "With": 8378,
  "higni": 8379,
  "masira": 8380,
  "men": 8381,
  "oro": 8382,
  "se": 8383,
  "si": 8384,
  "wuok": 8385,
  "\u2581101": 8386,
  "\u2581103": 8387,
  "\u2581112": 8388,
  "\u2581146": 8389,
  "\u25811947": 8390,
  "\u25811993": 8391,
  "\u25811997": 8392,
  "\u258150.": 8393,
  "\u258168": 8394,
  "\u258178": 8395,
  "\u25819]": 8396,
  "\u2581ANSWER": 8397,
  "\u2581Abiro": 8398,
  "\u2581Age": 8399,
  "\u2581Ahaz": 8400,
  "\u2581Anne": 8401,
  "\u2581Build": 8402,
  "\u2581Compare": 8403,
  "\u2581Di": 8404,
  "\u2581Fiji": 8405,
  "\u2581Gentiles": 8406,
  "\u2581Health": 8407,
  "\u2581Index": 8408,
  "\u2581Jakwath": 8409,
  "\u2581Jalo": 8410,
  "\u2581Japuonjre": 8411,
  "\u2581Jew": 8412,
  "\u2581Jolweny": 8413,
  "\u2581Koket": 8414,
  "\u2581Macedonia": 8415,
  "\u2581Mikael": 8416,
  "\u2581Millenni": 8417,
  "\u2581Ngimani": 8418,
  "\u2581Nineve": 8419,
  "\u2581Nya": 8420,
  "\u2581Patterson": 8421,
  "\u2581Pi": 8422,
  "\u2581Place": 8423,
  "\u2581Syriac": 8424,
  "\u2581Tiego": 8425,
  "\u2581WA": 8426,
  "\u2581Wane": 8427,
  "\u2581achien": 8428,
  "\u2581aseneno": 8429,
  "\u2581bede": 8430,
  "\u2581board": 8431,
  "\u2581chariots": 8432,
  "\u2581chikni": 8433,
  "\u2581cleansed": 8434,
  "\u2581concentration": 8435,
  "\u2581convincing": 8436,
  "\u2581cultures": 8437,
  "\u2581cure": 8438,
  "\u2581deception": 8439,
  "\u2581describ": 8440,
  "\u2581dhood": 8441,
  "\u2581endear": 8442,
  "\u2581exalted": 8443,
  "\u2581exile": 8444,
  "\u2581favorite": 8445,
  "\u2581forgotten": 8446,
  "\u2581fought": 8447,
  "\u2581gariyo": 8448,
  "\u2581giher": 8449,
  "\u2581gimany": 8450,
  "\u2581ginibed": 8451,
  "\u2581gipogore": 8452,
  "\u2581giromogo": 8453,
  "\u2581haughty": 8454,
  "\u2581hurtful": 8455,
  "\u2581idols": 8456,
  "\u2581ikwano": 8457,
  "\u2581inclinations": 8458,
  "\u2581inviting": 8459,
  "\u2581iya": 8460,
  "\u2581jatimore": 8461,
  "\u2581kanyaklagi": 8462,
  "\u2581kanyaklago": 8463,
  "\u2581konyise": 8464,
  "\u2581lacked": 8465,
  "\u2581landore": 8466,
  "\u2581larger": 8467,
  "\u2581leprosy": 8468,
  "\u2581lokre": 8469,
  "\u2581luonge": 8470,
  "\u2581magero": 8471,
  "\u2581makalo": 8472,
  "\u2581managed": 8473,
  "\u2581manners": 8474,
  "\u2581migepego": 8475,
  "\u2581mita": 8476,
  "\u2581monya": 8477,
  "\u2581morwako": 8478,
  "\u2581movies": 8479,
  "\u2581nokwero": 8480,
  "\u2581nonyosore": 8481,
  "\u2581nosekalo": 8482,
  "\u2581nyinyo": 8483,
  "\u2581ochun": 8484,
  "\u2581olam": 8485,
  "\u2581omanyo": 8486,
  "\u2581osego": 8487,
  "\u2581osekawo": 8488,
  "\u2581osiepwa": 8489,
  "\u2581otieg": 8490,
  "\u2581pair": 8491,
  "\u2581partial": 8492,
  "\u2581philosophy": 8493,
  "\u2581pinjego": 8494,
  "\u2581practicing": 8495,
  "\u2581pregnant": 8496,
  "\u2581preparation": 8497,
  "\u2581reconciled": 8498,
  "\u2581scattered": 8499,
  "\u2581scenes": 8500,
  "\u2581shadow": 8501,
  "\u2581sources": 8502,
  "\u2581sowing": 8503,
  "\u2581staying": 8504,
  "\u2581suit": 8505,
  "\u2581suppose": 8506,
  "\u2581surprising": 8507,
  "\u2581thanksgiving": 8508,
  "\u2581touching": 8509,
  "\u2581tribulations": 8510,
  "\u2581upar": 8511,
  "\u2581valued": 8512,
  "\u2581volunteer": 8513,
  "\u2581wahore": 8514,
  "\u2581walend": 8515,
  "\u2581watho": 8516,
  "\u2581wenge": 8517,
  "\u2581wholehearted": 8518,
  "\u2581wito": 8519,
  "\u2581wuodhno": 8520,
  "From": 8521,
  "ana": 8522,
  "hidi": 8523,
  "iwuok": 8524,
  "miyo": 8525,
  "tho": 8526,
  "ti": 8527,
  "tuck": 8528,
  "were": 8529,
  "\u2581100,000": 8530,
  "\u258110]": 8531,
  "\u2581127": 8532,
  "\u25811957": 8533,
  "\u258142,": 8534,
  "\u25816,000": 8535,
  "\u2581600": 8536,
  "\u2581Back": 8537,
  "\u2581Bear": 8538,
  "\u2581Blessing": 8539,
  "\u2581Britannica": 8540,
  "\u2581Canaanite": 8541,
  "\u2581Capito": 8542,
  "\u2581Chiemo": 8543,
  "\u2581Gikanyono": 8544,
  "\u2581Grace": 8545,
  "\u2581Haiti": 8546,
  "\u2581Humans": 8547,
  "\u2581Humility": 8548,
  "\u2581Insight": 8549,
  "\u2581Jack": 8550,
  "\u2581Jaracz": 8551,
  "\u2581Jatend": 8552,
  "\u2581Jean": 8553,
  "\u2581KIT": 8554,
  "\u2581Le": 8555,
  "\u2581Little": 8556,
  "\u2581Makwar": 8557,
  "\u2581Maru": 8558,
  "\u2581Mas": 8559,
  "\u2581NADE": 8560,
  "\u2581Obviously": 8561,
  "\u2581Ose": 8562,
  "\u2581Pok": 8563,
  "\u2581Roald": 8564,
  "\u2581Sandra": 8565,
  "\u2581Stand": 8566,
  "\u2581Taiwan": 8567,
  "\u2581Ting": 8568,
  "\u2581Warwick": 8569,
  "\u2581YEAR": 8570,
  "\u2581Yud": 8571,
  "\u2581addiction": 8572,
  "\u2581adversity": 8573,
  "\u2581alama": 8574,
  "\u2581anointing": 8575,
  "\u2581arrange": 8576,
  "\u2581bade": 8577,
  "\u2581bank": 8578,
  "\u2581beat": 8579,
  "\u2581chronic": 8580,
  "\u2581chunowa": 8581,
  "\u2581conceal": 8582,
  "\u2581diagnos": 8583,
  "\u2581directing": 8584,
  "\u2581disloyal": 8585,
  "\u2581doctors": 8586,
  "\u2581document": 8587,
  "\u2581dwachgi": 8588,
  "\u2581entirely": 8589,
  "\u2581equip": 8590,
  "\u2581evangelizers": 8591,
  "\u2581exclaimed": 8592,
  "\u2581faults": 8593,
  "\u2581founded": 8594,
  "\u2581gikanyono": 8595,
  "\u2581girwak": 8596,
  "\u2581giver": 8597,
  "\u2581gombone": 8598,
  "\u2581gope": 8599,
  "\u2581governor": 8600,
  "\u2581hall": 8601,
  "\u2581headed": 8602,
  "\u2581heirs": 8603,
  "\u2581hema": 8604,
[...]
